[PAD]
[UNK]
[CLS]
[SEP]
[MASK]
!
"
#
$
%
&
'
(
)
*
+
,
-
.
/
0
1
2
3
4
5
6
7
8
9
:
;
<
=
>
?
@
[
\
]
^
_
`
a
b
c
d
e
f
g
h
i
j
k
l
m
n
o
p
q
r
s
t
u
v
w
x
y
z
{
|
}
~
¡
¢
£
¤
¥
¦
§
¨
©
ª
«
¬
®
¯
°
±
²
³
´
µ
·
¸
¹
º
»
¼
½
¾
¿
×
ß
æ
ð
÷
ø
þ
đ
ı
ł
œ
ƞ
ƽ
ə
ɛ
ɱ
ʒ
ʫ
ʲ
ʽ
ʿ
ˆ
˜
ˮ
ͼ
α
β
γ
δ
ε
ζ
η
θ
ι
κ
λ
μ
ν
ξ
ο
π
ρ
ς
σ
τ
υ
φ
χ
ψ
ω
ϕ
а
б
в
г
д
е
ж
з
и
к
л
м
н
о
п
р
с
т
у
ф
х
ц
ч
ш
щ
ъ
ы
ь
э
ю
я
і
ј
ћ
һ
ө
ա
ն
ո
վ
ր
־
׀
׃
א
ב
ג
ד
ה
ו
ז
ח
ט
י
ך
כ
ל
ם
מ
ן
נ
ס
ע
ף
פ
ץ
צ
ק
ר
ש
ת
װ
ױ
ײ
׳
״
׼
،
ء
ا
ب
ة
ت
ث
ج
ح
خ
د
ذ
ر
ز
س
ش
ص
ض
ط
ظ
ع
غ
ـ
ف
ق
ك
ل
م
ن
ه
و
ى
ي
٠
پ
چ
ک
گ
ی
܂
अ
आ
इ
ए
क
ख
ग
च
ज
ट
ठ
ड
ढ
ण
त
थ
द
ध
न
प
फ
ब
भ
म
य
र
ल
ळ
व
श
ष
स
ह
ा
ि
ी
ो
०
१
२
७
८
ক
ত
ন
ব
র
া
ি
ে
க
த
ம
ா
ி
ு
ก
ข
ค
ง
จ
ช
ด
ต
ท
น
บ
ป
พ
ม
ย
ร
ล
ว
ส
ห
อ
ะ
า
ำ
เ
แ
โ
ใ
ไ
་
ა
ბ
გ
დ
ე
ვ
თ
ი
ლ
მ
ნ
ო
პ
რ
ს
ტ
უ
შ
ხ
ᄀ
ᄂ
ᄃ
ᄅ
ᄆ
ᄇ
ᄉ
ᄋ
ᄌ
ᄎ
ᄏ
ᄐ
ᄑ
ᄒ
ᅡ
ᅢ
ᅥ
ᅦ
ᅧ
ᅩ
ᅪ
ᅭ
ᅮ
ᅯ
ᅳ
ᅵ
ᆨ
ᆫ
ᆯ
ᆷ
ᆸ
ᆼ
‑
‒
–
—
―
‘
’
‚
“
”
„
†
‡
•
…
′
″
›
⁻
₪
€
℃
™
←
↑
→
↔
↩
∈
−
√
∞
≤
≥
⋅
─
■
▪
▲
▼
▾
◄
◆
◊
●
★
☆
☎
☚
☺
♠
♡
♣
♥
♦
✈
✓
✔
✡
✨
❤
➖
⠀
、
。
《
》
「
」
【
】
〡
あ
い
う
え
お
か
き
く
け
こ
さ
し
す
せ
そ
た
ち
っ
つ
て
と
な
に
の
は
へ
ま
み
め
も
や
よ
ら
り
る
れ
わ
を
ん
ア
ィ
イ
ウ
ェ
エ
オ
カ
キ
ク
ケ
コ
サ
シ
ス
セ
ソ
タ
チ
ッ
ツ
テ
ト
ナ
ニ
ネ
ハ
ヒ
フ
ヘ
ホ
マ
ミ
ム
メ
モ
ャ
ュ
ョ
ラ
リ
ル
レ
ロ
ワ
ン
・
ー
一
万
三
上
下
不
与
专
世
业
东
个
中
为
主
么
之
乐
九
也
了
争
事
二
于
五
亚
交
产
京
人
今
他
仙
代
以
们
件
任
企
优
会
位
体
何
作
你
使
供
保
信
元
先
光
免
入
全
公
六
关
其
具
内
円
册
写
冰
准
出
分
创
利
到
制
前
力
加
务
动
势
動
化
北
区
十
华
南
博
厅
原
去
县
及
发
取
受
口
可
台
号
司
各
合
同
名
后
向
吗
吧
员
和
品
商
器
四
回
国
图
在
地
场
址
坛
型
城
基
堂
場
处
备
外
多
大
天
太
奖
女
好
如
娱
子
字
学
宁
安
官
定
宝
实
客
室
家
容
富
对
将
小
少
就
尺
展
山
島
川
州
工
市
布
常
平
年
广
库
应
店
度
建
开
式
强
当
彩
影
很
律
得
心
快
怎
思
性
息
情
想
意
感
成
我
户
所
手
打
技
投
报
拍
持
指
接
推
提
播
政
教
数
文
料
斯
新
方
无
日
时
明
星
是
時
更
最
月
有
服
期
木
本
术
机
李
来
東
极
林
果
校
格
業
模
次
欧
正
比
民
気
水
永
求
江
沙
河
治
法
注
洲
活
流
海
清
温
港
游
源
澳
点
然
照
爱
片
版
牌
物
特
王
玩
现
球
理
生
用
田
由
电
画
界
疆
白
百
的
皇
盘
目
直
相
省
看
県
真
着
知
码
研
示
社
神
票
福
私
种
科
程
空
立
站
章
第
等
算
管
精
系
红
级
线
经
结
统
网
美
老
者
而
肖
育
胆
能
自
舆
舑
色
艺
花
行
表
装
西
要
规
解
計
語
计
记
论
设
说
财
费
资
赌
走
起
超
足
路
身
车
过
运
近
这
进
送
通
速
道
部
都
酒
里
重
量
金
钱
长
間
门
间
阳
阴
际
限
院
集
電
霸
青
面
音
项
食
餐
香
马
高
鱼
鲍
黄
龙
ﬠ
！
（
）
，
：
；
？
￼
👍
👶
💐
💩
💪
😀
😂
😉
😊
😍
🙂
🙏
🤣
##ש
##מ
##ס
##ו
##ב
##ט
##ר
##י
##ה
##נ
##צ
##ג
##א
##ע
##ת
##و
##ا
##ع
##د
##o
##r
##s
##d
##y
##l
##ח
##ק
##i
##b
##c
##a
##ל
##פ
##e
##n
##0
##1
##3
##7
##8
##ד
##ם
##ك
##ر
##ي
##س
##4
##5
##x
##p
##f
##ז
##ן
##9
##6
##2
##m
##v
##t
##g
##h
##כ
##k
##u
##т
##р
##е
##м
##и
##л
##ь
##н
##о
##с
##ン
##ף
##を
##し
##て
##ך
##ス
##ミ
##υ
##ν
##τ
##ρ
##ο
##φ
##ς
##j
##w
##а
##к
##э
##в
##д
##я
##z
##ﬠ
##²
##ш
##б
##サ
##ル
##テ
##ィ
##ク
##ץ
##ل
##ف
##q
##г
##у
##ы
##ч
##ه
##ц
##व
##त
##च
##´
##の
##は
##な
##い
##か
##と
##っ
##よ
##く
##わ
##ら
##た
##す
##п
##▲
##ᅢ
##һ
##ф
##°
##і
##エ
##リ
##オ
##ت
##م
##ح
##ج
##ز
##ة
##ж
##ん
##ま
##👍
##ط
##ن
##☺
##イ
##ト
##チ
##ャ
##ム
##×
##ص
##ش
##ء
##ı
##ᅡ
##ᄋ
##ᅵ
##ᄏ
##ᅳ
##ᄅ
##ᅩ
##ᅥ
##ᆫ
##ᄃ
##ᆯ
##म
##α
##γ
##ω
##ب
##з
##→
##ᄆ
##ᅮ
##ᄑ
##ᄌ
##る
##こ
##ニ
##บ
##อ
##ล
##า
##น
##เ
##ต
##ł
##ض
##щ
##ท
##ร
##خ
##ـ
##€
##⁻
##ی
##ə
##ß
##ι
##ा
##ज
##ो
##ल
##х
##う
##¸
##ю
##ᅦ
##װ
##đ
##ᄀ
##ᄉ
##ᆼ
##ᄒ
##ᅪ
##ک
##ᆨ
##ᄂ
##ᅭ
##￼
##®
##ᄇ
##お
##₪
##ट
##य
##ब
##ʽ
##ʒ
##ி
##™
##æ
##θ
##μ
##λ
##ø
##ײ
##り
##せ
##¯
##µ
##れ
##も
##さ
##া
##π
##☆
##−
##χ
##へ
##র
##ব
##ক
##ে
##←
##©
##ち
##ヘ
##フ
##ー
##ヒ
##ッ
##タ
##ு
##த
##க
##ラ
##ε
##σ
##η
##ใ
##ช
##พ
##ง
##ห
##ก
##ด
##ป
##ะ
##ส
##ソ
##κ
##つ
##ͼ
##ق
##メ
##に
##ى
##گ
##♥
##٠
##レ
##ว
##ำ
##ᆸ
##½
##け
##ᄎ
##ა
##ტ
##¬
##र
##ハ
##め
##δ
##カ
##ย
##न
##ˮ
##■
##ม
##แ
##ƞ
##ไ
##โ
##ホ
##ツ
##ᄐ
##キ
##ア
##ъ
##ი
##▪
##モ
##マ
##ா
##ड
##ह
##ण
##მ
##ე
##უ
##რ
##ნ
##ო
##ث
##セ
##コ
##ネ
##վ
##غ
##ワ
##シ
##ᅯ
##ᅧ
##ˆ
##◄
##ლ
##ბ
##ს
##ত
##≥
##ョ
##इ
##स
##ظ
##¼
##º
##შ
##そ
##ذ
##ᆷ
##ա
##ր
##ն
##फ
##£
##🙏
##გ
##þ
##¾
##ð
##थ
##ि
##भ
##ग
##ค
##ћ
##や
##み
##ʲ
##β
##ո
##प
##ロ
##ュ
##ナ
##ζ
##ம
##❤
##ウ
##💐
##😍
##ी
##あ
##🙂
##¥
##ვ
##ª
##ি
##↑
##ξ
##ळ
##😂
##ए
##आ
##چ
##ƽ
##🤣
##●
##ข
##¨
##จ
##♡
##😉
##ェ
##¢
##क
##ন
##ױ
##پ
##०
##ψ
##׼
##♦
##დ
##द
##😊
##ɱ
##³
##ө
##अ
##श
##˜
##ケ
##ʫ
##⠀
##¤
##♠
##ध
##え
##¹
##き
##😀
##œ
##ठ
##პ
##२
##─
##ʿ
##≤
##თ
##ხ
##ष
##✔
##¦
##♣
##÷
##±
##ј
##७
##★
##✡
##℃
##▼
##ढ
##✨
##∞
##ɛ
##ख
##💪
##ϕ
##√
##१
##८
##💩
##◊
##◆
##👶
##☎
##✈
##∈
##▾
##✓
##〡
##⋅
##➖
##ים
##ות
##ור
##ני
##ול
של
##ית
##יר
המ
##ון
##וב
##וד
את
##לי
##נו
##רי
##יה
##נה
##יל
##ין
##בר
לה
לא
##וא
##ומ
##שר
##יו
על
הא
##ופ
##יב
##די
במ
##תי
##מו
##רו
##נים
הש
##יות
##יד
##יע
##ום
##וס
##כל
##יש
##יא
##יק
וה
##נות
הח
למ
##וק
הע
##פר
הת
בא
##וע
##וג
מש
בע
שה
##לה
או
מה
##מה
##וח
##רא
##וש
מח
##דר
##לא
הוא
##וצ
מס
##נת
אח
##יים
כל
##רים
##יט
##אל
##רב
##יפ
מא
ומ
בש
הב
##יס
וא
##ימ
הק
##רכ
מע
##טר
עם
יש
##בל
הס
מת
לע
##ינ
##יצ
זה
הפ
בה
וב
בת
##שה
הג
לפ
לב
##וו
שמ
לש
##רח
אל
##יכ
הה
##רת
##זה
##מש
##וכ
שא
שב
##יח
הצ
##ינו
גם
מק
הכ
כי
##שים
הנ
##רג
##רה
לח
בח
אות
##וט
##מת
##דים
##וי
##שת
##בע
##שראל
##נית
ול
##נס
מחיר
מפ
לק
בין
##לים
##חר
##ירות
מצ
##ורה
וע
##דה
##עות
מב
הד
היא
##לק
לכ
##בוד
##את
המש
בס
מחירון
##עת
בפ
##ירה
##וז
בק
היה
##בי
מכ
##ותר
##מי
##נט
##ולם
##מים
##חת
##מן
##בים
מי
20
##עה
##רט
##אי
##ונה
##יום
##וף
##מצ
##וני
##יעה
הי
הר
##שי
וכ
לת
##גד
בר
##שות
אם
כא
בב
##פת
יותר
##וה
##ובים
##חה
לי
##ונ
##רות
##לת
##ונים
אני
##סק
הז
ישראל
אי
##אה
##ולה
אמ
##פט
אנ
##אות
##פי
##לב
##לט
##ורים
##פק
##כה
בג
##ראש
##מות
בכ
##לו
##יג
##וך
##דרך
##חד
לצ
##פשר
הט
##אים
##לות
אב
אבל
##ניה
בית
לג
##חק
מג
ממ
רא
יה
##כם
##עים
עד
שנ
מד
##חות
##שב
##קה
19
עצ
רק
##ולים
שע
##דם
נס
##כת
כמו
##ברה
בי
##טי
##ילה
פע
הם
##יון
יכ
##רק
וש
כך
##טוב
##לול
בכל
לו
אחד
לס
##בה
##בות
בדרך
ולא
להת
##יתה
##ובה
בצ
##פה
לד
##כים
##דות
##פים
##בת
##מוד
##ליה
בד
הרב
##נק
##er
##לח
כדי
##תר
מרח
##ומר
בני
##אר
שכ
##בור
##יני
##וגל
##מר
##יותר
##יבה
לפני
אשר
##ילו
##זור
##דת
וח
חש
אין
יצ
ידי
בט
##ברים
##כות
##ורת
בו
כב
##כו
##שו
תק
שלא
##ילומ
זו
##תח
##סט
במק
##00
פר
חי
##ירים
##רך
חד
המק
מסלול
שק
אוטוב
אך
אוטובוס
201
##חים
לאחר
גוגל
נת
##של
קר
##on
היו
נסיעה
##צה
##חי
##ורי
הראש
גד
מפות
קילומ
מרחק
##מיד
##קים
##פות
קילומטר
אותו
##ווה
##רץ
ישובים
##טים
##ימו
וג
אז
חבר
נית
מז
##ניות
##ברי
##ולי
##וץ
עבוד
##נג
##יז
##in
##יתי
נוס
##ישה
עוד
ביותר
##ראה
##תה
##ריך
##ורות
מדי
##ונות
##יקה
שלה
##ורך
##מד
##רכז
##עי
##ופה
זאת
אינ
ות
##ירת
להיות
כת
בפני
##מע
מט
##שא
עלי
נגד
##כן
##לך
##גר
יכול
##סת
בנו
הזה
##רצ
יע
ראש
##ילות
##קות
שם
לכל
##ופן
##פו
##ילים
המע
##חנו
שני
המח
מאוד
פי
אפ
##סים
##ופט
##וות
##ומי
##צוע
##נד
##ובר
##ar
תח
לנו
##ומה
יד
##ודה
##צל
נע
בל
אלא
##el
נכ
##an
איש
שלו
שהוא
##יפה
חלק
ממש
נש
מספר
יח
##ולוג
המת
כבר
ניתן
קט
גב
אחרי
כול
##וכל
ולה
##סה
הכל
##ידה
##סי
##קר
למע
##פור
הל
##וצה
נפ
הפר
ונ
בז
בבית
כמה
שיש
##יבור
##at
##ושה
המשפט
##צי
רב
10
אלי
##es
##יבות
כן
##כנ
אפשר
##או
##ימים
מר
##ינה
##ניין
כש
##רכת
##יוחד
כאשר
##וחות
##סף
##בק
בן
נק
##מל
##תיים
##ומים
בתח
היום
##זר
שת
נח
##ואה
##צע
הנו
##en
##תו
##פל
אחר
מוצ
התק
##ודי
המס
##ולות
##צב
שח
##פרי
לט
וק
##לית
##al
האח
##גיע
שנים
##כי
מל
במה
##טה
##יקר
לר
##בד
יל
200
דבר
##בוע
טוב
שלי
השופט
##עם
אחת
רג
יום
##לם
##תם
##קד
11
באופן
##ליון
##or
##כש
##יך
##גה
##בח
במס
##מית
הרי
לנ
במש
תה
##ציה
עבור
##ילת
##ידע
##מא
קצ
תל
##ינים
ללא
אור
עוב
##טור
##קת
הרבה
##יהם
##ירוע
שלנו
גר
12
אביב
##ra
מנ
אלה
##פע
##ניים
אנו
##אלי
משפט
##קב
ספר
תש
רח
אף
נה
ועוד
אדם
##ובות
בלי
##רונות
##דו
משה
##ביר
##יפול
להם
in
לפי
תע
אד
##גים
##שם
אנחנו
הגד
אס
##ומות
##בודה
##תא
המא
בתי
##ריה
מוס
שנה
אותה
##ימוש
##יפור
כמ
##קי
##os
st
הלי
##בא
##מור
##ודים
##פס
##רבות
##דש
##כר
רכ
##חו
וגם
באמצ
רבים
##שוט
לכם
##ירוש
##דינה
##גל
אותם
רצ
הספר
דרך
וס
ברי
לעשות
##רום
##קט
האם
שר
מלא
##ירי
##יבים
הייתה
##יכות
##ומת
##אן
##ער
בשנת
אנשים
##ודות
##ואר
צריך
שירות
##it
##שרד
בישראל
##ופי
##עד
##קס
אתה
בנ
מן
זמן
כד
המצ
##ובע
##מין
##גות
כאן
##שק
כה
##בט
חז
##תק
אמר
##בו
נא
התי
גבוה
חומ
##צים
פל
##מח
##ראות
##ודש
חיים
##טרה
##ליך
##פון
##ברית
##לל
החלט
החברה
יוד
תא
##ובי
לך
ופ
##לון
הן
##מונה
משת
##צר
##ic
ביט
משפ
##מעות
18
##יטה
##ויות
##ריות
גור
קי
##ינוי
לז
15
יהיה
##מק
התח
מתח
הראשון
בלב
##גע
אתם
מנה
נמצ
##יבת
##וון
במקום
די
שש
##ובן
להע
לל
עסק
העולם
##לום
##גרת
##וסי
שי
מקצוע
עדי
פרט
השני
##ריק
##חון
חוק
קור
באמצעות
##רמ
##ימת
##גור
חברת
העיר
קב
אלו
למצ
במח
פס
שלהם
##ברת
עבודות
אה
##יחס
##ותו
שונים
מקום
פשוט
##ליט
##ילדים
יוצ
##פקיד
מול
##et
כנ
רע
##נוע
לקבל
עמ
כלל
to
כולל
##ימות
הוד
ואת
פול
ירו
כשה
פעם
מכל
##כון
איך
מור
מוש
##ביא
הרו
##פש
בהם
##גן
בעולם
פרי
##יי
האמ
סט
עבודה
אינו
##ль
במהלך
סוג
הנת
מוד
מוע
##is
חס
שט
##גת
ית
##ра
במע
##וסט
##נם
##ולת
ניס
ביום
החל
is
אש
מנת
חשוב
פני
קרובים
##יוון
##ביע
אג
בעלי
הרג
##נון
##וקר
##צות
וז
##קו
גדול
##he
##ווי
תוכ
הופ
לבית
הור
אחרים
פור
שהם
שבה
הול
מדובר
תוך
14
##בעים
##שרה
שג
##רד
##פרס
למש
##רכות
וד
##ליים
ארו
התע
d7
##ли
מתק
##ושים
##רע
והוא
##צמ
##יצור
שהיא
##גש
כח
מוכ
בתחום
הני
בעל
וי
שאני
עליה
ועל
חדש
##ומית
##וקה
השת
##יבי
וכן
13
סב
##זק
עצמו
רש
טע
ובע
רוב
##ing
בדי
##ועל
##om
##וצים
שלכם
מרכז
##נן
צרי
cl
##טרנט
חל
##ed
אומ
שלך
##as
תיק
##ופים
סי
##וקים
##דרה
קיב
##יצוב
##יכה
תמ
##am
נד
##קל
##ion
בשל
עליו
שמע
ומע
נג
שבו
##ביל
##חלט
##צת
##יעים
##ינם
##בעת
##רון
שפ
בארץ
היתה
לימ
##מס
ביק
יחד
עש
קרי
##מוק
אצל
המדינה
##שרות
רבות
##וצאה
דו
##תיות
##ולד
##ופת
ספ
להצ
מתוך
למה
להכ
##נסת
##ברות
איר
##זו
אית
שתי
##נשים
##מעט
להג
הבית
##ירושלים
סרט
תמיד
בלבד
מומ
מדינת
##יטת
##שימה
ויש
16
##יסט
המב
##זרח
אופ
וכל
דין
חוש
לראות
##rael
##שראלי
##שתמש
החש
יק
ואח
הכי
במיוחד
##ко
כפי
israel
##ונית
משמעות
פרו
שיע
קל
##רכים
##כשיו
קשה
תר
ביצ
##פיק
גל
מוז
##ניהם
ולכן
##וצר
הארץ
בתק
##ישי
##ot
פרס
הפע
אומר
קול
בתוך
##לוו
##יוק
##ברס
לכך
##מוך
פחות
##il
##מט
ילדים
אפילו
רוצה
בצורה
##משך
והא
צי
והת
30
##ose
##וחים
עצמ
העוב
##ופר
הממש
מערכת
##שלים
ומה
17
ברח
הראשונה
שבע
##ליות
##וסף
למצוא
עדיין
שהת
##שית
שאין
הזמן
##ינוך
בעיקר
משחק
השופטת
הנה
##וחה
האדם
##ur
##ריים
שהיה
שזה
העבודה
החיים
מלח
יב
ומת
##חור
##ניק
##שרים
##יאה
##פוא
הרכ
התא
##וצאות
##רונה
במסגרת
החלטה
##ולוגיה
מים
##ותה
בראש
העליון
קוד
##שורת
##עו
הלא
##uu
כס
##ידות
אותי
צע
##כויות
##ימה
תפ
##נא
למרות
##יקט
##טח
באתר
משהו
##ch
הגיע
כיום
נראה
כבוד
היח
##קבות
אולי
ברו
##רגון
##ודית
עומ
##שרת
בתל
הביט
חברה
##יאות
close
ועד
מסו
מאז
השנה
##דון
##נטים
שוב
הדין
כג
##נסה
וט
##ביעה
##ליק
##ol
##ינג
וצ
כתב
שיח
ערב
##יניים
מוג
##ומן
המד
הדי
למשל
יכולים
##иль
ומו
из
##וכלו
לעבוד
##בלת
מעט
מידע
אליה
כמעט
##ניס
הרא
##ובעים
##ברו
אולם
הברי
להפ
חשב
השלום
טבע
למו
199
##יתוח
##חז
בזמן
לפע
##נצ
מופ
בפר
##us
הקב
##лиз
##מנות
близ
близко
##ופות
נט
המוע
וזה
##פורט
המכ
שעות
אוה
בירושלים
מיוחד
изра
העסק
איט
החד
an
בהתא
##ליח
израиль
אחרת
נכון
##דרות
##רש
ההת
מבק
##רקע
##גי
##יוני
בנוסף
תכ
שימוש
##נע
לגבי
##רגע
האחר
לכן
מהם
יא
הקר
נצ
חמ
שיו
למח
איכות
##רית
משרד
טר
להגיע
נוספים
דברים
ובה
המט
##יסה
25
##ויים
##ילד
שונות
שמו
##נאי
##וקא
והמ
קשר
ומש
שכל
שנת
##ובל
מנו
והש
פת
המרכז
קו
##אלה
לבין
##מנים
למק
##רכה
##ודת
בגלל
זכ
עכשיו
אינה
להש
הפס
##על
##ימון
##ובעת
##יסטור
##נטי
עז
הגב
שצ
##ad
אר
תחת
נוסף
ור
##ינת
הרצ
##דרת
יס
שבוע
היר
קצת
בעקבות
דוד
הערב
##re
##וציא
בלתי
##בלים
דור
עו
להס
##דק
##תב
באמת
##כס
##עתי
עיר
להב
מיו
קש
##הל
גיל
ימים
##פחה
ומס
האינ
##לין
##ישים
דא
אירוע
במשך
מתי
000
הו
##le
יור
מוב
ירושלים
##ואים
##ודשים
הסרט
לתק
היש
פרק
##יין
מרג
##מונות
טל
שנות
חברות
כזה
##סטי
בדיוק
ואני
##im
המבק
מיליון
##בורה
##יצוני
ניצ
והח
##ימי
כגון
והע
בכלל
טיפול
בעיר
השר
##ציות
הזו
הממשלה
ניק
שאל
לדעת
##משיך
מוק
##נהל
השלי
למס
##ידים
##כיר
ארב
המה
קבוצ
מרו
האתר
ככל
תג
ממנו
##טל
ומא
##שוב
##רבה
##דור
נוש
הדר
הרח
##ושת
##לתי
הנא
בהתאם
הכול
ראשון
בעצ
##יפים
##iv
הגדול
מעל
כלי
לקר
עור
בעת
המל
הדבר
##ואל
##יונות
טי
##יקים
##ent
רוח
חול
הייתי
##וסר
ספק
##אית
##ראת
##ומו
##יתר
הצד
מני
##נר
מאד
##רפ
שום
##אב
אק
##זרת
ואף
##רצות
##יצד
ha
בתיק
##שלום
גדולה
##סם
##מון
החוק
הציבור
הקט
##כתב
##ורג
##יטב
אוכל
ליד
הרש
##וניברס
סמ
מבחי
24
פה
נשים
יודע
נות
##מנו
##ופו
נמצא
כולם
התובע
ממו
מזה
בשם
יכולה
טובה
##עיף
21
##נועה
##ווח
##נסות
##וחר
ואם
זוג
##חרות
##נח
##נחנו
דעת
##ישור
פא
שית
לאורך
the
מטר
##em
כמובן
##ir
##ישות
##רטיס
חופ
##נייה
הנש
האחרון
##יאל
##ווים
הדרך
החדש
נב
##מרי
סג
##סית
ים
רבי
לאור
##סון
אבי
##בית
אליו
##יחה
מעבר
השנים
##מנה
הלב
##חן
##ונו
המג
מסוג
##וכה
דקות
דול
ני
##כב
הילדים
במקרה
מאפשר
בקרב
##זל
לפר
##ובת
יעקב
באזור
בסיס
לתת
##רוץ
סיכ
לעצ
##דרים
מכן
##ייה
קלי
אתר
##גו
##ולט
##סקי
מצד
רשת
##כור
פעילות
בכך
לרכ
##זים
##מבר
ומק
##צו
מיד
לאח
##נין
רוצים
##פתח
מסת
##תיד
מהמ
##ילי
##מיים
רבה
פג
##וכר
##וקי
ואז
תהיה
קטן
##זון
המוס
כלומר
##יפות
חומרים
משום
גבוהה
הבא
##ירו
הדברים
אנשי
אותנו
כפר
ביד
198
##נתי
יהודה
##צא
בנושא
00
##ורר
שבת
נוע
לקרוא
מות
50
האלה
לצד
##מודים
חב
ובר
ניה
יצחק
ברור
יפה
לבד
בקשה
##לן
מוח
##ro
##כלה
מערכות
סוף
כוח
##ידי
כסף
##ни
צורך
עולם
##תרון
##וכן
אינם
##ac
האד
הישראלי
הברית
הזאת
הוב
22
##id
סימ
##יבית
##סיס
כיצד
דה
קרא
##פני
##טון
לפחות
יפו
עושה
הפל
100
##יחות
שכן
בידי
##יעות
שמש
השק
##ig
למעשה
והה
האחרונות
##וזי
והיא
דר
תהליך
הישראל
##צרים
התש
שנית
דווקא
שלום
##ינות
החי
##לץ
שס
המוש
לביט
##שור
##לונות
האל
##יית
בעוד
עשו
##רפת
טיפ
מיל
האיש
##שהו
יוסף
הבע
##יחוד
מצב
שיה
רכב
שקל
פעולה
##וויר
##ורס
היכ
צה
להק
ובא
שול
עולה
ואין
##ורא
ליה
##רבית
קודם
##נגד
##ודל
##05
כפ
חת
##ינלא
ברא
חומרי
##זם
##לחמה
בנק
שנו
לזה
חברי
חודשים
##ut
הלק
##יצר
לבצע
##ליל
חוז
##כני
שיר
##וסיף
משק
מקור
עובד
##פג
##לוט
שוק
##ביבה
המקום
##בן
כע
תוכלו
##שתי
רמת
משתמש
##כול
להבין
##שתת
עבר
##יגה
השבוע
הרע
לראש
והס
##ומיים
תוש
הוצ
##ועים
שיק
ולע
הסכ
שיפ
בשביל
תת
שגם
מפני
חג
למד
##שבים
##וניות
חדשים
40
בשנים
להח
ברק
סכ
יצא
שמת
נתבעים
##נתה
לומר
זהו
צבע
##ילום
יו
שנע
מיני
סיפ
##יוע
ארי
ידע
##יתים
##טיין
משל
##מידים
of
and
##נסים
ימי
##סר
##יכול
פנים
ירי
לשם
ציבור
##תים
אחרות
##טרי
השכ
גן
חר
##רונים
לעומת
##ct
##דן
##וקת
הקד
חק
נתניה
תיא
##רוך
אזרח
שיל
אצ
תובעים
##ag
מיק
##וויה
##טית
תפקיד
##מך
##xx
##ישהו
צריכים
##פא
ומח
השמ
כהן
חדשה
##כנון
##מיה
##יפוש
##נויות
194
הכנסת
##נדר
##גוד
פרופ
##תיק
##טו
השפ
##רכו
תב
פעמים
ולי
האמריק
עיצוב
##כונות
##הליך
##גב
##פיה
מתא
23
מגוון
##ומרים
##ושר
עק
##ניסה
רפוא
בסוף
##un
##וליט
##ען
במרכז
הקוד
לבר
מחשב
הבח
הללו
קד
##לוויז
להז
ללמוד
##ייס
היד
דברי
##ילן
עמו
שלושה
##דרש
חיל
##ונן
197
##כח
עליהם
הבר
דוג
##רם
##בלו
##יפוי
##נאים
נז
למי
##יאת
##בוק
וכו
פסק
ונו
##גרות
בספר
##רן
צוות
וכך
זמ
לצורך
##יבל
שירותי
איטום
המוצ
##יסטוריה
טכנ
##והים
##חקר
מהא
דיו
להשתמש
##פרט
במידה
ליצור
##ותם
##כלי
##ינויים
חדשות
סיפור
לקראת
שהיו
לטע
com
שמא
לכת
השירות
##ay
סביב
ארג
##גדל
##ברהם
פלי
ואל
##דינות
התורה
##דל
##רבים
##קור
##וכנית
עצמה
מראש
השנייה
בזה
משפחת
נוספת
אישי
##חם
##ואי
##וסק
##ידו
והפ
##סור
צד
סל
##טא
##וסים
##הילה
##ברג
בעבר
##זי
דולר
כדאי
##ופא
ניהול
גול
##יצה
המוד
עובדים
למעלה
##ation
דג
שינוי
##ליו
מקצועי
##רבי
אוו
##בול
ובכל
ומצ
מילי
לקחת
האירוע
הינו
##דיה
##טות
זק
בדר
המשפחה
##יעו
הכת
##מצא
שחק
##וספת
ושל
##בעה
מסע
המשחק
##מינים
טוע
יהיו
מספיק
##סוף
##קסט
##וריה
מאת
ביח
##ישוב
הטבע
2011
העצ
##דרי
תרג
כות
חוץ
חודש
אזור
בניה
עוז
שונה
##פילו
לישראל
משא
מחדש
זכויות
הגוף
פיר
להתח
##ביב
ובמ
לוק
סוגי
##וצות
##ונג
קא
##ер
החינוך
##יף
##ידור
נמ
הצע
אלף
לכפר
##ידת
ערך
איזה
שהע
מוט
להתק
##ניינים
השל
##פתחות
לעולם
##כלית
##ul
ויצ
הישראלית
lt
החדשה
כאלה
גבי
##ונס
ההג
שלוש
ניסיון
בהחלט
##לוויזיה
##ורף
יג
והם
##בירה
שלמה
כלפי
מנהל
##וגה
196
##uuuu
חיצוני
שימ
##קשה
##שייה
מהש
והצ
בהן
ההס
מאות
2012
שהח
באותו
אמנם
##st
והן
מונ
בעזרת
##פרים
##סות
ויר
גז
##וביץ
##יץ
בשנה
שד
מומלץ
הסת
חוב
26
צו
פוליט
אכן
כאמור
במא
לפת
יהודים
יודעים
יהודי
חייב
ייע
עת
הודעה
הצדדים
05
באותה
מהע
מעור
גדולים
##יטות
##מול
##פקת
חשמל
עושים
רואה
פיתוח
##יצוע
##בלות
##פוס
##לקת
המשך
מגיע
ילד
כרטיס
##רחב
לטוב
הפרו
בטון
תופ
co
אברהם
##ושי
לבחור
בגין
##וביל
צמ
התל
##שע
באי
עקב
שאנחנו
להביא
ידוע
##ст
יפ
חיפה
אותן
מאשר
##פשרות
##שתו
אבן
##זרים
פתח
שאתה
##ers
הנח
גא
##מכים
כנראה
##וזה
##רוס
המים
כמות
u05
מבין
מדה
בגיל
חדר
לידי
הוע
שאתם
בסרט
היתר
27
העם
שמח
אתכם
ורק
##ראי
תורה
להלן
תודה
##רכי
##נתו
sh
מלחמת
האופ
אכ
ללי
לילדים
לוח
קיים
##ליטה
28
במג
כנגד
אישית
תרבות
##צלחה
##ישת
עניין
בהת
##לקה
##רס
היהודי
הים
בעניין
הרכב
שז
##ורם
בהמשך
משנה
דומה
התובעת
##ינט
קיבל
שרי
מהס
המאה
2018
קצר
התפ
##יטים
##יוס
##אם
##טרון
עץ
לדבר
##רוב
המידע
החז
##רגיה
צפ
לצאת
מבט
ולק
הטיפול
המקצוע
המז
##ופול
לשמור
אפשרות
##כנית
##ны
הוק
הטוב
גמ
מפל
משות
##ריז
ממנה
פק
מאח
נוכ
הנס
##סטר
אול
##עון
להמשיך
לביטוח
##ов
##רוני
היהודים
ולח
כאילו
קבוע
לדברי
##חדים
קיד
##סיק
##מויות
##פרד
קמ
re
בשלב
נוספות
עצמם
##יהן
השימוש
ביטוח
שעה
עצמי
חכ
התמ
##שון
הוכ
המצב
29
אותך
האור
בינו
למקום
היצ
לעבודה
דלת
שהא
ברחבי
היטב
מכש
##ראו
##יכר
סול
פט
60
נחשב
קבוצת
צריכה
09
מהח
90
ריצ
האחרונה
המוז
כוכ
ביר
צינ
לפג
עסקים
העובדה
נעשה
עבד
##ציב
מבית
##וגרים
יז
##נש
רחב
לשל
למען
סק
שאינו
אנג
היע
##מידה
בשבוע
לבן
מלאה
##ניח
לדוג
זוה
ארץ
מצא
##ow
##מודד
מצוי
שניתן
##ak
##יחים
##od
##מרו
להור
##תן
הצל
תצ
ביצוע
##ריקה
האיר
הקבוצה
השונים
ברכ
סעיף
במצ
##ab
לאומי
מהר
##ומיות
רפ
בשבת
##פח
##ריט
עשרות
תנו
החולים
לבני
##ייע
##מיות
##נהגות
מדוע
משפחה
עשה
##ורית
חצי
ובכ
##יבורי
עין
##רוש
##בנה
שבא
גלי
03
צל
תוכנית
תמונות
##ארד
והק
שנק
פוע
הזוג
הבט
דני
אתרים
ולמ
האוכל
הקול
ישראלי
##פיים
##ופית
בוד
לרוב
הינה
מיכ
##um
שומ
ואפילו
##ביעות
be
2016
להא
פיק
ובש
ענק
מבלי
##ליף
##מץ
וכי
לעמוד
##מדו
תומ
##מונים
ובין
מחז
והג
הגדולה
יוש
##он
##לאות
כשא
נושא
##מחה
ומכ
ולאחר
כעת
שהצ
האי
זכות
לוי
ויו
אחוז
ולש
שות
##ויה
##ריכה
לני
35
לקוחות
תקשורת
##סל
השם
אלפי
יחסית
וזאת
הוג
##שבון
להסת
ציוד
##ילוי
נתניהו
המופ
##וונה
בזכות
##דיו
פסיכ
בשוק
חרי
##יתון
מזרח
שיצ
##נגלית
ספרים
תז
##יכנס
קטנים
בריאות
לשע
ייח
##אלו
##ולוגי
##ווית
חושב
הבנק
ht
במצב
קבלת
שו
##לוטין
##יבוש
הבריאות
ראה
להשת
07
##ורו
אוט
שהי
##מלי
195
הנתבע
מוצרים
##ואו
הביטחון
##מרים
לחלוטין
נולד
האג
08
בעיני
##ידן
##av
צור
בשר
סד
##צח
לימוד
נשיא
##שיג
רגע
אינט
מהת
##יסוי
הקש
##ורש
##וגים
לעבודות
המלך
לגמרי
הנק
באינ
שרו
##דבר
##פן
הצבא
##יאון
בעצם
נכנס
סא
רומ
כדור
##וגר
ביניהם
עומד
מתאים
##מתי
מתחת
ויק
התג
מתע
לתח
##פרסם
##און
לחץ
##מוקרט
בימים
##יכון
לעבור
##if
שמן
ייש
מיום
בחלק
פרטי
הקשר
נקודות
ריש
ארגון
העלי
al
לציון
##וניים
מישהו
שקלים
ציון
תס
מלב
חפ
הילד
בחיפה
יוצא
##ודנטים
##שתה
##בצע
טובים
הנשיא
אודות
הנתבעת
הסט
מכך
70
מאיר
קומ
##ועדה
ליו
ישנם
האנשים
##אורה
##וונים
היינו
##שפ
הימ
##זרה
המון
צילום
לראשונה
31
חוסר
קטנה
ומי
רשות
ובת
בתחילת
האחרונים
##נטית
שמה
קירות
הנפ
ההצ
##וטים
עמוד
##רוע
##ובד
מחוץ
##יכים
מבחינת
מכיוון
מוצרי
נפש
לדי
##20
ltd
כיוון
בניגוד
האמת
##בתי
ברשת
שהמ
##סוק
ספרי
עלה
##ולוגית
הפני
##דמנות
##שויות
##וכים
##ראים
ליצ
ככה
##og
למנוע
נציג
ועם
האנו
##ונת
מבקשים
שאם
יכולת
##יסות
שבהם
##כנת
##ודע
99
ביו
לשלם
להתע
כתוצאה
גרי
המלא
בהק
הפג
איס
אמריק
ספורט
מטעם
##טרף
הפנים
##פייה
##יעי
ברמה
טור
שבר
de
##af
דרי
פיצ
ברמת
##פית
ביחס
התביעה
##ia
כוחות
##ov
מרק
שיהיה
לשנות
ללכת
##שמים
הקמת
לפנות
להעביר
ויד
##ter
לחוק
##לטון
##גיש
##ראית
האינטרנט
נמוך
החק
שמד
בעיות
##ליחה
ביש
האוויר
רואים
הגבוה
##יור
מראה
ענ
לבדוק
הרוח
באר
קיר
לאחרונה
לעזור
##יקום
הגיעו
בפועל
לבע
##מב
בחברה
##ומם
חברים
בקב
מקרה
##בש
193
##דיק
הקרי
לארץ
בבר
ראשי
כללי
##ניהול
##פעל
בעיה
##ен
כר
מדינה
וו
השתת
##ар
המלחמה
צבי
הפעם
צבא
אט
מאי
נתן
ללק
עלינו
##יהו
ויא
דירה
מפע
להתי
##וונת
לילה
הראשונים
תקופה
עב
##יפת
##ps
un
אוויר
משמש
##ess
##למת
חולים
##ומיני
2017
טרי
##ופש
בחודש
מעוני
הסכם
##ידול
##מוע
##ואות
06
02
גוף
וני
אחריות
##טרת
##יקטים
##יתו
אירועים
לציין
ומג
##מדה
##נרת
שמואל
##ik
מהווה
לחזור
פתי
##וטי
הצה
והיה
מרי
שאלה
השאלה
שיא
שכבר
קבע
אהבה
המערכת
עול
באוניברס
מאחר
as
שצריך
לשעבר
לאירוע
בעלת
##יתכן
התר
בשעה
בכפר
מלון
לאתר
01
80
מחקר
מחירי
גרמ
תקווה
##ומד
הנכ
לפעמים
סוכ
בסופו
##שן
##גנון
הסיפור
הולך
קרוב
##ודעה
ימ
דמי
##יקת
##ah
##בס
מסוים
##ירון
##יבו
##לכה
ביה
קני
##רוכה
ויע
זכה
הבעיה
##ורמים
##יבוץ
שהס
העיק
##יתות
##דיים
##סום
##כירה
34
2010
##יסת
##חלטה
se
##ימן
להד
##רגל
שחר
##יתונ
##יטל
התקשורת
ביחד
יורק
##פקט
##ינון
בחי
מעלה
הטר
נמו
קיימת
אלב
##צעים
##פחת
הפרי
המוב
משר
צפו
המחשב
##ופל
##פטמבר
##וגוסט
שכר
חשבון
##מדת
אמצ
פינ
בכדי
הפוליט
שעל
הצורך
המפ
חט
2013
##זב
45
במערכת
חלב
##מם
חיי
##סיה
גורם
##יונ
##יבוי
להשיג
##ילוב
ואילו
##ינן
##סקים
##ונד
שעבר
##פך
##פחות
דיס
מעצ
שאפשר
מבוס
השלישי
##וין
##ציפ
חינם
וחצי
il
##מרת
##פסת
החבר
קה
למא
##צית
מפר
פרח
יתר
הכר
הבל
##ор
משמעותי
##ומדים
נזק
שמס
הפך
מדינות
ההכ
כזו
דק
עורך
##פיין
##ועד
##ולוגיות
בטוח
מידי
##רחק
השרון
כז
2015
שטח
האס
##מינה
החליט
##תיע
דרכים
בוט
האש
היהודית
##בעות
החמ
רקע
מזון
##ורד
מדר
אומרים
להפוך
##ine
##שטיין
מו
חומר
##נכ
וכמ
בחר
כולו
שמצ
סדר
2014
ניו
##ат
##שום
מגד
מתקני
והכ
המשטרה
נשא
##וקס
##כשיר
המי
##יבוד
בבע
##יעין
##ומיניום
38
ביטוי
אמת
התרבות
הלקוח
##הבה
המנה
##וקטוב
##טע
##יעור
מעין
בתא
בתור
נתונים
av
04
בשנות
ויה
##מוס
##סקה
##יטר
##שיית
##אס
נמצאים
והב
לבק
##לוקת
מעולם
בארה
אומרת
מקצועית
קלא
לעצמ
##וקטובר
##יכרון
צינורות
הפלסטי
ובח
##ובמבר
##רוק
דם
הקור
##ינר
##מדים
ברגע
שאינם
מהה
מועד
##ועה
שווה
בחיים
המלון
בדבר
מתכ
עוצ
בתוכ
##באי
במקרים
ליום
היות
הנע
36
##ет
חזק
פרסום
לבנות
##רני
באיר
בור
htt
להתמודד
דף
פלדה
שהש
תחום
בתקופה
התחת
לרכוש
מעניין
מקבל
תיקון
con
##ce
להחז
לעיתים
הנאשם
##יפורים
##ילית
קורה
##וקף
##ap
ממצ
קפה
ורי
en
שמות
תשלום
בצפון
לגרום
בול
##תיקה
##שאים
מחפ
הרפוא
נבח
מרכ
במהירות
##גרים
העול
הפת
לכתוב
קרן
##ותי
##ילון
רו
ארבע
##ייב
##מנט
ועדת
מרד
##שרי
קטנות
עשוי
היחידה
##ri
ממה
יהוה
##ברר
המנו
במקביל
תד
##ורט
הבאה
##מפ
לקנות
הוש
שדה
מספק
יכולות
הבינלא
##שיות
מתן
וכד
ארה
בלא
##יונית
חמש
מגיעים
ניתוח
השיר
תנאי
##פרו
חשיבות
העור
בסך
הנד
##וסיה
בנס
האזור
ולב
##ודו
העובדים
##רגיש
לחשוב
נדר
##ואלי
##אימה
לטובת
תוצאות
##רוג
המבקש
##תחיל
האזרח
כלים
33
##כלים
##תונה
נוה
הלח
לרבות
שאת
פש
חובה
מנג
ארצות
משיבים
מנסה
##ופעה
שאלות
נוצ
למדי
ראו
אירופה
##יקור
##וכית
32
יצירת
לספק
שאר
החר
##לילה
קרב
##ונק
##סו
בקרי
להיש
אוב
##ew
בבל
##ard
ממלי
סופ
מבחינה
u05d
להוציא
##ron
ומד
בתע
החלק
500
לאנשים
##טג
##פרה
המזרח
ובס
בכת
לעתים
##ביה
בשטח
מורכ
ממע
מבנה
מקומות
אינטרנט
ro
##ולן
היס
ניר
העברית
ביקורת
יוכל
הימים
משמעותית
שער
##דוד
דת
באינטרנט
מלך
##יטי
##אג
מעני
איתו
ותק
##יתם
ניש
##ки
##מותה
##ודאי
שיב
##ופס
לאל
##טרק
##רחש
הגרמ
ארוך
סע
##וטנצ
השחק
##צמבר
בפע
אסור
##חתי
##יתוף
בוקר
##יקו
##עתו
##גם
הפועל
##יצות
הלו
הביא
לספר
עני
##רין
##טרות
לטיפול
##כלו
##לבום
נור
לתל
גורמים
אוני
להיכנס
להוסיף
עשר
מתחיל
תואר
במשחק
יחסי
הסיבה
התנועה
##כנו
טבעי
##יצים
פלא
##יריית
##ריון
##ילא
ואמר
פיז
הקי
ובל
ברוך
הביטוח
##ולל
שאנו
פוג
דירות
מנכ
בוח
##פריה
אתמול
##סטיבל
##ילויות
ומב
המות
אישה
פרטים
שמונה
אנט
טרא
##אלות
שלישי
הבסיס
מעב
תמיכה
##מנת
##נחה
לתוך
לקב
סיר
##וסקים
ההורים
משחקים
עשרה
חינוך
##חרי
מיוחדת
th
##לפון
היחיד
בינלא
שיכ
בהכ
##נסו
שיעור
קרית
שחור
##מוש
##ריכים
sp
הרשמת
דלתות
להימ
שהה
ch
שוט
החברות
שבין
אישור
2009
2008
מאוחר
מין
הרשם
שנא
ולת
כוס
בנוגע
##סטית
בצד
דח
הנית
##גוריה
לפעול
הכב
##יונים
במדינה
היק
במטרה
תקופת
קבוצות
##נטיים
שמדובר
##ליכים
פעולות
המוצר
מביא
רוז
##ירייה
וכמובן
##יסוק
##דית
המור
##פול
הלה
הנוכ
##ושבים
בסדר
עי
מייצ
##טחים
יוע
##and
מאחורי
המחוזי
אליהם
חייו
##גיעו
לשחק
##од
לאפשר
ויותר
##וויות
מיוחדים
##10
##ка
אמנות
אלקט
##כתה
95
שגר
הגר
##op
לנת
הומ
##ענה
##אק
הגנה
הארגון
ar
לאכול
דן
לנק
##בטיח
אוס
##ובלים
on
קרה
משתמשים
המוח
##יתן
##ושות
ופר
##דימה
שנתיים
##ולו
מהד
אקד
##ואב
השאר
העונה
השוק
##ובלת
##נז
המציאות
מדו
המועצה
עיק
##יעת
תכנית
לשימוש
תמונה
שלב
אוהב
##פואה
הגדולים
מעשה
האת
צעירים
אבו
ברוב
מהיר
במספר
qu
ליש
##מאס
##כנים
##זית
המיו
מעולה
##יגים
##זות
##לטות
ובו
מרת
תוכן
##פקה
למג
טעם
##יקות
##ok
ממשלת
ונת
והד
פתרון
ובכך
רי
האב
##וצת
ואולי
כלום
נקבע
ויח
הפעילות
כשהוא
האנ
מחשבים
להגיד
ראוי
ברחוב
הקל
רמ
אמרו
##יכת
##כתי
##ודד
היל
הבוקר
חזר
יר
לרי
ברצ
מחק
##לויות
לחיות
חזרה
דב
היב
קונ
##בקש
##יכך
חייבים
בניית
לכאורה
צרפת
בשני
שירותים
חסר
הכס
ההז
קרקע
בקלות
##יער
ארבעה
שיג
הבאים
בנת
##נשי
##כנולוגיה
הנושא
##פלגה
גברים
נותן
במשרד
##יביות
בהס
מדבר
עג
ברג
##מום
ורו
##אור
##ish
le
אביו
מהן
מיר
##וקות
ובק
המתח
הלילה
מבצע
והמש
העניין
להגד
צעיר
##טיות
##ואן
מפת
רצון
##oc
לנס
##צרת
##דיין
##למים
אמרה
הוס
##זין
pro
חור
הלימודים
ובני
המחקר
הדת
המחיר
##נדי
בבוקר
##ילוס
קיימים
השונות
להתחיל
לשת
כשר
##מאות
##יפו
סביר
בתפקיד
מוצר
קבל
האקד
המומ
המשתמש
הגל
ישר
שיווק
##אלית
בכתב
הקהילה
##וסייה
##עימה
במאי
##est
החלו
##ובב
בבתי
##ud
ממק
##בלה
האו
וול
##מתו
##ופאים
##וטה
she
מימ
המשק
##ידוד
הרשות
ניקוי
אדום
אוניברס
החלה
##חרר
מיליארד
התוכנית
המפור
ריצוף
##ברואר
סתם
עמד
##טיים
##ארק
באש
והנה
הכסף
##יווק
##בריה
מציע
מתקד
תושבי
##לטים
ראשית
העת
##לאי
##עזר
גופ
הית
מטע
כחלק
##ירתו
בחדר
זר
אבא
עובר
##אשר
##נקים
אמור
tel
לחש
##יכו
ובעיקר
המבנה
##דיקה
יודעת
##יתית
קבוצה
##לאים
מקבלים
קפ
הסביבה
##נף
##ליחו
הוועדה
דמות
יסוד
לאדם
אילן
שירים
לטי
השו
##ub
זוהי
##ונדון
בנות
ורג
מדע
##לאה
אלוהים
מבר
39
סיבה
תי
אמיתי
להשק
##נדה
לשמוע
##ביעת
מצרים
##חל
לשא
ממוק
נאמר
##לחמת
מהצ
מבע
##לטת
##ינית
##ונש
##כרת
צומת
מהפ
משול
משנת
אוטומ
##ובדים
סופר
##ודר
המבקשת
לרו
##פוך
בתקופת
וית
חיוב
##ech
שלם
2007
לימודי
##זרו
דיג
מרכזי
##50
נמצאת
עבודת
##ענו
##ель
העיקר
מלבד
הטובה
שבועות
בפתח
ייתכן
##למות
אלומיניום
##ימר
2004
הולדת
שהן
##עתם
בימי
ישירות
כולנו
ישנה
ליהנות
##וברת
##ts
הכולל
הפוע
מבקש
##מיר
קלה
מענה
כשל
סבא
נאל
##גובה
##סן
לקבלת
##דיות
##ריע
נפג
##מצאו
##ip
##ולדות
חוזר
הכות
פתרונות
עתי
לעיל
הפק
##וגיות
להן
##זורים
שמעון
להר
הצעת
סכום
ולהת
for
תשובה
למצב
איפה
מסך
##וטל
המשרד
להכיר
##קין
שיתוף
##ark
קוב
ראי
בארצות
מילים
##ננה
רפואי
במד
הצליח
##שיים
אורי
##זיה
אליהו
מבנים
חוות
הנתונים
##שבת
חצ
המוק
גישה
בעלות
עיני
אמא
משפחות
בחשבון
הקהל
לנסות
##וגות
נכונה
במחיר
ארוכה
שבח
##נהג
192
בדרום
נפת
עונה
##נאות
ריק
באשר
שחי
##uuuuuuuu
יין
##זרי
לשים
##יבא
המאפשר
התייחס
זיה
##נהלות
ראיתי
##ies
בינ
##יגות
לסייע
מסמכים
קורס
##נוק
לגלות
##ינס
בתהליך
איל
זהב
שינה
מדיניות
##חית
תרגום
הבחירות
שינויים
##ви
משמ
##כרו
##צעת
עלות
ונש
מפתח
נוער
סימן
לתי
##לתה
ההחלטה
היכולת
##נור
מבח
##ле
ורצ
נוג
##בחן
מכפר
##יוב
באמצע
ww
ממח
הגיעה
##והר
אופי
לקבוע
##נב
תוכל
עתה
##ירא
במדי
##גלה
##קן
רשתות
שרק
לפתוח
##ונם
גדולות
תלוי
שיחה
הצוות
במת
באח
ושוב
מורכב
גיא
בדיקות
שיער
##וניה
##ושע
##זת
##ya
##מידי
שטר
ייעוץ
שנש
שהג
פגיעה
לממש
לדוגמה
##ריכת
משקל
##der
##סיון
##רר
להציג
הראשי
האוצר
37
ניג
##11
להניח
בנימין
לשלב
כותב
עיריית
המשות
מוקד
הרשת
יוני
חיפוש
בראשית
נחש
הדיון
48
##תקיים
המיוחד
לחלק
בעבודה
מאל
אלמ
לתע
ירד
ייצ
הלאומי
##ice
##ולחן
הנשים
מותר
האישי
##ан
נקרא
##פקד
יצר
הוראות
הפלי
בבח
איב
##כרה
באל
הנוס
באירופה
לחברה
הגז
שוא
בטר
##כונת
והט
##מרה
הזדמנות
באה
שנח
בכיר
כלשהו
לעבר
ex
מערב
ליר
נוח
מעמד
or
להתא
שימו
לאחד
יוח
##נטיות
באחד
תנועה
האפ
בשירות
ונס
התעופה
##נגדות
2006
42
אגב
נו
מדהים
טרם
##מדות
##רער
הנראה
מרדכי
תור
לכיוון
ראשונה
ליט
זכר
שהופ
טיח
##ענות
##שט
www
הביתה
פות
לכבוד
ותח
לרשות
באור
כוללת
סיום
הרעיון
המרכזי
אבט
300
יוכלו
2000
##ידום
לבוא
שור
נשמע
ביא
בגד
בפעם
אלון
במט
מכבי
שישי
האפשרות
##גלים
##יקורת
התנהגות
חיו
##יכם
אימ
##מצאים
מאפשרת
שיטת
האישה
it
פתא
ובמק
שכתב
שהייתה
מושלם
##שבה
##נסיה
שילוב
##לקט
עלול
##מונת
אסטר
##מודדות
נעים
נר
שערים
שרת
פרטיים
בבני
באנגלית
המדי
דניאל
##12
שתה
##וכב
מצווה
מזל
לאי
ישראלים
מרבית
פרויקט
במקומות
אפשרויות
ונע
מחו
אלינו
התיק
שרון
##ные
##קע
התהליך
מלחמה
מסוימים
##מינות
יחידות
הפעולה
##פיע
##ин
##צם
הקרקע
עברו
התיכון
זכוכית
תביעה
כלשה
משכ
יהודית
שמי
##ודיו
נשאר
##פלים
המטרה
##יסים
##רבע
##וברים
43
##וונות
מורה
הנוער
he
ישיר
אופן
שפת
לפס
כשב
לתפקיד
##דיש
דרום
מקורות
44
שהק
##עדה
bl
בימ
גרם
עבורכם
סגן
שמק
לעיר
להיפ
שלהן
ממס
לעצמו
##iz
##ימור
הבה
##art
פרשת
השבת
בערב
הקודם
##תחלה
החיפוש
בחו
התב
##מוצע
מרצ
לעלות
ההגנה
הצפ
##יזם
טקסט
##הן
טלפון
גבוהים
ושם
##pl
גוריון
הכדור
##פעיל
עזה
נגר
ארצ
השמש
בערך
בניו
##ידוש
ולס
רווח
ליב
sc
הגישה
למת
מהק
הקפ
##וזים
עורכי
##ווירה
ערוץ
שהפ
##שקלון
##ניף
ad
##ell
##נוס
לשני
שיד
להגיש
הכוח
##טן
הנוכחי
##יטלי
הורים
##ינוס
מיז
מוכן
דל
##ние
העל
מלה
##חתה
סיכוי
##בודות
##all
ויכ
##ודא
אצלנו
מתנה
טענה
להט
##ולין
לעניין
הוח
התפתחות
בגוף
am
נכתב
##ומנים
##פסיק
מחפשים
אוהבים
והנ
סקס
שופ
pr
מחוז
הדירה
רוט
מכיר
##ישורים
שומר
יוסי
החס
לשירות
##יינו
לפתח
##שנות
מחירים
טען
##נייני
שיניים
##טת
מעוצ
הלקוחות
חדרים
aviv
אפשרי
איננו
##כונה
עפ
##כמה
##מסר
אדרי
הדעת
##כום
לצפות
שהרי
##ort
##יביים
איתן
בשעות
בעתיד
פית
גודל
##לקות
##טרס
ספי
המילה
טובות
##רקעין
הנכון
בלילה
ודי
אלכס
##פרת
##ריו
הלכה
באפרי
אינן
##קוב
תינו
נגרות
כאלו
תכנון
הנתבעים
כולה
##גיד
ירוק
תלמיד
אילו
בפרס
טוען
מומחה
לבח
המוצרים
בעצמ
הפור
שלח
##ist
מסוימת
ונק
חיבור
גרמניה
ביקור
##ניקה
בקול
הקרוב
בקרה
בבאר
ון
באירוע
לפגוע
##но
חברתית
##יכוי
##כוון
מעלות
##igh
חן
##of
שליטה
לשר
פורסם
הבד
מלי
##שתתף
התלמידים
עצם
מסגרות
##ash
דיון
העש
רופא
נפר
חנה
##ואת
צדק
ניקיון
שמחה
סדרת
ההשק
2005
איכותי
##אתה
##לחת
##ודיות
החומר
השא
לעין
##וכיח
הצי
לקיים
הנפש
מוזיקה
##לנד
חוקי
כושר
##פיות
וכמה
##מורת
המקומית
המאשימה
##יתנו
בקשר
ואי
כנסת
##ייסבוק
הדם
מבני
הצעיר
מכאן
הסדרה
סור
##ביו
הספ
בעברית
אריה
ולפ
חיות
אורך
הופך
##סקת
טרור
כבית
המשיב
תשל
##ולדת
##יבוב
למב
55
בדיקת
דמ
##עש
מנחם
בעי
br
ביטחון
##פיינים
משמע
##זן
סיפר
מלונות
עמוק
במוע
הסדר
שדרות
השטח
מצליח
המשמעות
ריב
חוויה
מגדל
התקופה
גבר
##ופיה
##ליכי
##כללה
חם
ביוב
הסמ
##רעור
וידאו
מאמין
נשק
בפרו
הפרויקט
קהל
##רמניה
באוניברסיטת
השב
מקב
75
מכר
טא
יולי
ואבי
למשך
חיס
המלח
מסר
##ופיע
המוכ
גבס
חלקי
הזכויות
ותי
נחל
##מטיקה
פתוח
ברורה
46
##ie
##ננים
##פריט
לחיים
יוצרים
מזג
כיס
רלוו
והז
משם
הכנס
##ריס
##רגונים
תנועת
##ודיים
הציבורי
תוס
גרו
וללא
המר
מוקדם
65
טה
##שרו
##ריב
ולצ
מיכאל
לשון
##דמות
וחלק
מנע
שפה
לטפל
נקודת
ביל
לצע
השפעה
קידום
בנה
אנרגיה
לחפש
יצאו
חום
ללקוחות
לאירועים
מטבח
##ומק
##שוואה
ال
במל
ישיבה
##ate
##נברג
האלבום
קוס
##יפי
המוסד
קדימה
כרגע
הדור
להקים
לבל
טענות
##יקס
כתוב
##יטרי
ארכ
אשתו
##19
במאה
מקס
רה
גילוי
האפשר
הפכה
למים
הוצאת
למט
פתיחת
לרב
סרטים
לעז
שיכול
משפטי
ירק
##שיב
##וגי
הפרק
##לטה
##שאיר
פשוטה
##אט
האחרים
##ib
המתא
##סטל
##וחי
שמאל
פלסטי
בהרבה
להכין
##נטה
אמצעי
ההבד
תאורה
53
להיע
רכבת
רוק
מדברים
תשע
הטובים
##כלות
העד
ההיסטוריה
##yat
צעד
קופ
##ge
מכון
התשובה
ph
##ph
חדרי
התרג
לבחון
לשמש
פיג
נמוכה
תחרות
בסגנון
##כנן
##נאה
איתי
yo
נושאים
ויל
העצמ
##וסקת
חשובה
##פתי
עיקר
פירות
##יסטים
לרצ
ונח
בעצמו
##וטוב
##וריות
##ופעות
התוצאה
שנפ
דיא
התמונה
מתב
שימש
ואנחנו
אמרתי
המונ
##אטרון
פרחים
חזקה
לנשים
##דיף
במגוון
##ערה
נהרג
איתם
פועל
ציר
לחם
בדיקה
כניסה
הקרב
הרפואי
בינואר
מכירים
##נתיים
לנש
##ישית
מאשימה
##בעו
מפקד
שליט
החול
מקרים
שאינה
טיול
באת
גי
קורא
תחומי
בשיתוף
להזמין
לדעתי
לנה
התכ
שרה
ביקש
ברית
החוץ
הפופול
##לאת
לביצוע
הבלתי
##ניון
יקרה
בספטמבר
הקומ
##חייב
##תייחס
ויאמר
49
ספציפ
##דס
pl
גובה
##qu
מהו
##ליפות
בתים
מעמ
להעלות
שאול
##נדל
הכניסה
##יאתילן
אבות
מוכר
עוסק
##13
מתוכ
ביולי
קוק
וכת
##פסה
קיום
לאט
##שובה
מית
סח
חבל
##ואין
אוהבת
מסחר
##בון
הוצאות
רגל
בחוק
שבש
דפ
##מפרט
##נטר
היפ
##שתית
כלכלי
החדר
##ניט
מרגיש
##14
חיילים
נכסים
לייצר
##מודי
לזכור
תחילת
השלטון
##רצו
נוכל
בפרט
מאור
##ליהם
כלכלית
זכתה
##iryat
##וטו
##יגי
מפג
ויס
שופט
пр
מכת
##צור
יבוא
העירייה
אדמה
בנובמבר
הפול
חות
52
##יזר
התפקיד
##ציית
ביוני
שלפני
קס
אמו
##כלת
משתת
פארק
ליל
47
##רמון
ולג
לשלוח
לחי
תחושת
באוקטובר
פתאום
כו
לחברת
באו
תפק
##וניברסיטה
##כוה
העין
מציעה
##כרים
יחס
הטי
עומדים
השח
הוסיף
אריאל
בחש
עדיף
מקווה
המדע
##יאלי
ma
השפה
##ом
בבקשה
##גרה
המלצות
מחי
קוראים
שעברה
שוו
רחוק
##ity
##פנים
מנות
לשבת
##וכנות
אורג
הרמב
##רכב
ורא
מילה
##מיני
מגן
##חייה
רשאי
משחקי
כספי
##מחים
רגיל
בשבתו
החשמל
מהג
דרכ
עילית
שולחן
ונית
האמריקאי
##אום
קרו
##חתם
##נל
החלטות
##צרות
##קול
רחוב
לשמ
להרח
##דמה
המתק
עובדי
##ob
חמישה
##ek
בניין
כיף
לשפר
במים
פעיל
גני
צפוי
בוג
ממני
תורת
נהג
ההסכם
השתמש
פעמיים
פרג
תאי
ורב
אופט
מכתב
מגורים
זע
סבל
החדשות
ייצור
לשכת
הכלכלי
תוספת
##ושב
תובע
השניים
עתיד
##ידית
ברב
עומדת
##אש
##חינה
מרה
ram
##ment
המקרים
אפליק
הספרים
לפיכך
עצמית
חושבים
האלו
לשאול
##יאן
חמישי
יימ
חלקים
לכולם
הידע
##ומנות
התחיל
פלסט
פו
רשימת
##למה
##ולוגיים
##בריו
פירוש
##וזר
קונס
בצה
נול
בנייה
ואיכות
##ци
מחקרים
##ובייקט
94
##וצאת
##ובדה
לאה
לציבור
לקדם
##מקד
ספרות
הגדולות
חכם
##קיה
ער
מונה
מוצא
##ит
ואחר
חברתי
בעד
והרי
בכמה
##ידר
ומתן
אמריקה
סיפורים
שפע
שרות
##וטנציאל
יהושע
פנו
הקיץ
עליכם
בחיי
לוחות
##טרים
##כנס
עשיר
לזכות
חייבת
##בני
ישראלית
חלקם
##אני
##לף
ממשיך
להסביר
ארוחת
##כוד
חנות
תשומת
בהצלחה
##ол
##נפ
http
מחר
בפס
היחסים
נוף
##וער
מיכל
פינת
הכח
העות
נדרש
ברז
הספורט
פועלים
##ינתי
##רנית
איסור
שומן
##ובלי
סת
חופש
##מורה
חתי
שנאמר
פוסט
לסרט
ובנו
בסעיף
להגן
חכמים
##ind
שזו
לחל
##ירוג
רעיון
ממת
נוצר
מאיתנו
ליע
ברשות
הגבוהה
המקורי
לאו
##יתונות
##pe
עובדת
המזון
העיקרי
סיני
##אוג
טלוויזיה
מזמן
להעניק
לבקר
המרכזית
בנג
שכת
הקטן
##אללה
רחל
קריאה
##רפתי
##fa
במלון
##18
הפועלים
בראשון
64
54
##תייש
טכני
##ill
שאף
הבנתי
ליא
##יגו
שניים
תחושה
ייחודי
עפר
ויט
גולד
##חוק
כבד
מבינים
##ופין
##th
הפרטים
והכל
לטענת
ברחובות
הנג
האמור
מופיע
שחקנים
דלק
לנהל
מחול
המפלגה
סיל
57
החדשים
תרופות
##יצונית
להרגיש
דופן
ציו
הקשור
##15
צנרת
##יסטורי
צפון
##יצוי
##ва
בדומה
סמוך
##נינו
הבינלאומי
##יקל
הבריטי
להישאר
400
הלאומית
הציבורית
תלו
מחלות
זוכ
##ne
##bo
לדוגמא
##ריד
מאמרים
להימנע
##טט
מידה
הגשת
##פונים
מציאות
המדינות
##כז
אקס
ac
ירידה
מתל
ליבר
tra
האדמה
החג
קרובות
תוכניות
הולכים
הרגל
לדבריו
חוזה
##ועלת
המשיבה
באפריל
מכשיר
##17
אתרי
##מוי
בצבע
הרכבת
ושה
ותש
הנסיעה
לחבר
##יסבוק
לקח
##כירת
מותו
ישירה
לרא
##נך
הכוונה
חשש
##ופלים
קולנוע
מגיעה
תלמידים
התובעים
ולד
מושג
##up
##az
ההק
באוגוסט
##סד
בפרק
מעש
##ארי
משותף
רז
הון
מפור
יוצר
##וצע
יאיר
העתיקה
במלחמת
הטלוויזיה
בדצמבר
מהירה
##מיכה
יצירה
##ריאות
##וצי
משני
ציבורית
מצוות
##גרס
העמק
##נסי
המקור
##מציה
שרא
העברת
עברה
אילת
וכדומה
כתבה
##от
##פיד
והיו
##ינשטיין
הקו
האצ
##פיל
הוו
##60
השואה
עשויה
בטח
יקר
יחסים
עברית
הכלים
הבחירה
ההש
net
מיזוג
מצוין
##nam
תגובה
tr
אזורי
ללב
להתאים
בהצ
##וסטר
ריכ
הגול
we
שלט
ניכר
מילוי
העיצוב
ברכה
##עדי
עמדה
שעש
דרו
שהב
הפסיכ
מסביר
##כירות
הצלחה
המשת
הקצ
דעתו
תיע
הבקשה
עזרה
##בטיה
כזאת
##גרש
2003
ידו
##יבורים
צמח
##כללת
##נוב
מוסדות
בתום
##מוני
97
מספקת
##כוהול
##ומא
הכפר
עמית
##כרות
להיר
נאשמים
כוכב
שיפור
שאמר
##ive
ונג
קיבלו
##צרו
##נלי
שמים
im
בהג
הקשה
למכור
##פיו
הפכו
u05e
ואיך
האר
בחוץ
##פיא
אוניברסיטת
המשפטי
דוא
הלהקה
קצרה
ההד
##ליטות
חשובים
הליך
כאב
##יקי
דגם
שניהם
##וגן
בהע
בקט
דוק
ובט
יובל
דיווח
##ודדים
הערבי
שקט
מהב
##io
ביטול
##מנויות
אורח
דמוקרט
החוף
מכיל
להחזיר
להשקיע
וכמו
הנדר
תחילה
העסקים
##טרקציות
מוות
עזר
זול
בטיחות
פינוי
במי
למשחק
לרח
עליך
שבהן
נתק
והי
סטי
הקדוש
דרכו
המושלם
החברים
פצ
העבר
לצומת
זוכה
הבנייה
מתחילים
בהקשר
שחקן
##תיחה
להכניס
סוכר
הראשונות
##ניהן
##ויח
##שתתפות
לנג
זרי
אבר
רציתי
מצפה
ההור
ופע
מכירה
##ישו
לזהות
מטה
בלה
כאחד
לבטל
הגורם
היסטור
עלייה
עיתונ
ליק
שבס
##ניעת
מעוניינים
השיטה
מהמק
##וצרת
שהכ
##ам
מימון
המבוס
נורא
למעט
##רויות
##ction
##נדס
ומתח
אשת
הפרטי
בחברת
כנס
מאמר
##ימרים
עמי
בינתיים
##ריל
הות
הלך
##מני
##רשמה
רד
חיה
עברי
לקרי
לימודים
el
חופשי
הקונ
דגש
ומקצוע
##ודק
במזרח
איזו
הזכות
##יקאים
##פורמה
road
בלח
חנו
ילדי
האה
##יסר
כספים
מבחר
משע
הדג
רצוי
לרגע
מטרים
בתגובה
השי
שיותר
ההון
##וגו
##יכולת
יוז
##מלה
שוכ
חוף
סקר
##שבות
##כנע
##לע
יוק
הצבע
אחיו
הערבים
ינו
אישיות
##סטים
נפרד
##יסטית
ריה
חשבתי
##יטור
ווא
למלא
לרכב
להציע
##לימות
הישיבה
עצמא
##ברתית
שקיב
מסוגל
לחג
גילה
לתקן
98
לשנת
גנ
באיכות
העצמאות
רות
עשויים
יחיד
##בירו
שוש
150
##ес
בקרוב
רצה
וחיפוי
מקצועיים
האחד
ישנו
בתחומי
קצב
משפחתו
ונה
להתג
##גיה
##30
##ודשי
##דיון
##are
מודעות
##מחירון
מועצת
בשפה
##יחת
##ירום
לחס
##יפון
קובע
##ובש
העברי
האמנות
צר
התכנית
##כמים
xxx
לרמת
##va
##יוט
החודש
למז
שירה
us
בסב
להבטיח
הצליחו
קטגוריה
##ass
בצל
השקעות
מהי
מתאימה
אלבום
המועד
ימין
הכנסה
אביזרים
גיר
הכללי
שוח
למתן
יושב
הנז
אלק
56
פרטית
שפר
##ושם
ומז
תמר
האק
אפריקה
בחול
החיס
58
##ינד
אלקטרוני
אחראי
ואינו
זית
שמגיע
הצבאי
##ודיה
עיניים
הסבר
ריח
קיבלה
לקוח
ברכב
בואו
לוקח
##ex
ההתק
מאו
חוס
בשתי
למידה
יוצאים
נוק
הלימוד
##ניב
בצורת
מצאתי
בהכרח
הצטר
##בורג
תמורת
מרחב
זאב
גדל
בולט
כללית
מאה
קשים
בגל
לוותר
יוצאת
##פין
חייהם
ציפ
נבחר
קשור
לבקש
במוס
בריא
גידול
##ליא
##בילה
מבצעים
קשות
האמיתי
עוברים
משתנה
אשה
בנט
הבניין
המשנה
מחס
##כונית
אופנה
##ans
כיו
לים
##מוז
צבעים
הוז
עט
##חינת
להוריד
##סס
off
חני
התוכ
##חח
המקדש
סיכון
שהוק
להוכיח
##לכת
ייחוד
עדות
למערכת
שיטות
בקר
לפק
מטרה
שלושת
##נתר
##אלת
##ועדת
הזהב
במרץ
ap
ואחרי
השירים
הבן
ואולם
להפסיק
העובד
בהרצ
##סוקה
מנהלת
בתנאי
ואחד
טראמפ
##ליטים
מחלקת
להתייחס
85
מסביב
##אתם
הגא
מכירות
לבסוף
תחז
אחריו
שוקולד
כלשהי
בגן
רוכ
רוסיה
##איות
##פלת
##16
##ירוף
רעיונות
מאחור
##ack
איתה
הארי
##גרם
##ck
##ust
נייר
פעילויות
תגובות
החלטת
הקורס
ולו
להחליף
לקהל
בטרם
מכונות
רשמי
שיחות
תחנת
רמות
בעיצוב
לעצור
##פכה
תום
אנגלית
יומי
פרויקטים
יט
חושבת
סך
וכאשר
המוזיקה
תמצאו
כחול
תקצ
##ילומים
המערער
##כלול
כימ
##שתתפים
כביש
המסחר
וזו
זיו
היחס
מציג
שאי
לייש
התושבים
##ירור
ובי
מצח
מניות
לבעלי
בפעילות
##יציה
שיצא
הכוללת
פרנק
##ביש
##נתן
מומחים
הטיפ
עולים
בשיעור
##בחים
##טרך
##ופשה
זהות
נתון
טיסה
##ימום
##מרות
בטיפול
לחת
המעבר
צרכ
מלווה
מאמינים
מציעים
מחמ
חנויות
בפברואר
ביבי
האמית
לדר
at
האחריות
היכן
הארצ
##ורן
לוקחת
בקשת
##רונית
נוז
חלונות
##ure
ובכלל
המתאים
מוכנים
##רישות
תכונות
בחירה
לשינוי
רכישת
שלד
מקד
ומט
##תיקון
סטודנטים
מוזמנים
טק
יעל
ההע
שהביא
##ал
הנצ
הלאה
הרצון
נותנים
איי
67
בגובה
##גדים
המחירים
kiryat
מנסים
נמסר
##יקף
בחק
השלישית
לערוך
ההר
בסמוך
בשימוש
##שאי
יתרון
הדלת
הרבים
##בירות
אלמנטים
בכוח
ערבים
המשמש
מגלה
הפרסום
והתק
בראשות
לגיל
עמדת
משותפת
נדמה
לפרו
ולהע
גופי
הדמוקרט
##והה
הגליל
גבעת
העסקה
מסור
מקומית
פח
זכאי
העמ
כני
קלים
ופשוט
הבכ
##וזן
ידעתי
פחד
לדרך
מטרות
שולח
צביעה
המילים
משוב
תיאור
עכ
הקולנוע
##ילנד
אמיתית
דמויות
##דיקות
##רגש
התחבורה
בתורה
המערבי
גבולות
##ant
ולמע
מפול
מועדון
במשפט
איננה
##דרו
בתוכנית
אפקט
##sh
שפור
##ינא
וצי
האימ
##בחרת
בחום
שהגיע
עצמאי
אוגוסט
##ישון
אימון
סוד
מהמש
ביס
##געו
ידיעות
לאת
דבריו
קווי
המוג
##ace
ממשלה
מטרת
הרחב
בהיות
ישנן
ההסת
##חרור
נוסח
שנייה
שהיתה
##וגיה
טעות
##יסי
גולן
לפועל
תוכנה
בפור
##יעוץ
##אבים
ואנו
בשום
2002
##וגת
עסקי
הוציא
להראות
bo
יי
ובצ
מרכזית
ראשו
##ליחים
אינד
המשיך
מזו
##טחי
נמש
הכלכלה
בחירת
##בטא
הנוכח
הכבוד
וגד
פנה
ויב
לעסוק
במוז
##שך
##ביס
ליח
ברזל
עלולה
הלוח
למטה
דיבר
תקציב
מהלך
היסטוריה
##ost
##ore
59
##80
יעשה
##גורר
##נציה
לחדר
דורש
לעצמי
מושלמת
##סייע
איכ
ריהוט
##דיא
כרטיסי
##ния
השירותים
במילים
לילד
##ניסיון
הטור
##ניו
חלון
רחבי
צמוד
סין
##בך
לגבעת
בבחירות
הקבוע
ави
השינוי
לפרטים
##יעית
##גנו
##שימת
זרים
שהוג
הולכת
שפות
הראל
המחלה
##ינוכ
והתח
התה
האירועים
מהכ
##יימה
ועכשיו
אע
סגנון
למרכז
ארונות
91
הבמה
##יאו
##named
פופול
קיימות
רפואית
##ial
סוגים
אלימות
unnamed
שניות
##ארץ
##ight
ניכ
המאמר
השומר
הספק
איז
##פלל
הובלות
יעיל
שיפוץ
שבט
האהבה
גת
קיבוץ
מהות
##פעול
דיסק
מפעל
##מותת
##na
ילי
שהז
מתקי
זוכר
קשת
אן
ואתם
דיני
לוודא
כמי
הודיע
ואחרים
חיפ
##לס
הקיבוץ
אזרחים
אליעזר
באופ
ומתק
##ינסקי
שנמצא
##אד
הוראה
רביעי
##זציה
קישור
המאוח
ליצירת
הדרו
מפק
טווח
מוביל
בנושאים
מגנטים
היישוב
החוצה
הרופא
הפרס
מחזור
השידור
אוק
##אפ
##חתו
למדינה
לפיה
אקוסט
תחבורה
יתכן
##ויד
יוקר
רחובות
##affa
##one
הבין
190
נדל
##פוי
להוביל
##פסות
me
היי
נותר
##מצם
עבודתו
##כסוך
זיכרון
רפואה
jaffa
הפיק
##יסטי
שלל
יגאל
ההוא
היוע
צב
בידוד
התמונות
ויז
מוגבל
סיג
77
פאר
##פד
##הם
האות
השמאל
##ומט
##דמן
##לינג
go
מנצ
##סטרו
הבאות
בשדה
ציבורי
כוללים
המנהל
הונ
הידוע
סינ
מפגש
כתובת
טו
הכוחות
בתפ
מזכיר
id
הקודש
ישת
היסוד
fr
מתאר
החתונה
והשק
ההבדל
##ast
##ברך
עצום
##יצג
שקיבל
לעד
מודיעין
התרח
הקודמת
הענק
סנט
מיש
##фо
##age
ולכל
צבאי
הכלל
נוכח
החומרים
סיוע
##דרכה
##סקו
##ומך
במאמר
מגע
בקיץ
רצח
תבניות
עמיד
התוצאות
זצ
##וסה
לשכ
בנסיבות
במדינות
##בנו
שווי
הפתרון
שלאחר
##רגיל
אהבת
תיר
המסורת
https
62
מתוק
לדאוג
השחקנים
שהוצ
##רבו
המבקשים
מבוסס
להצטרף
נווה
##תחם
כרי
הקרובה
2001
בהשוואה
##כין
שטיחים
טקס
##ועי
##מתם
בוא
איראן
##טרסים
מיקום
תביעות
##רוכות
אזרחי
זמני
סמכות
##ויי
מערך
##לחו
##צרה
ואכן
רחבה
אופניים
התנ
ארד
גוש
פרץ
ברע
הליכה
בוודאי
##40
נדרשים
тель
העתיד
ואתה
נוכחים
הידי
דוגמה
החוב
מוסיפים
##חיית
הוות
כוכבים
##ед
מעוד
שמירה
הכללית
נקי
יוחנן
##לייה
במדבר
במדינת
##פגש
##pt
##טין
בריט
תלמידי
כשאני
יפים
об
שנערך
במז
משטרת
בשילוב
מסעדות
להמשך
בסביבה
שבמ
העולמי
שאולי
החברתית
##ma
##ותן
##ופטים
התנאים
ובד
חשמ
בתחומים
כדוג
##וחת
אשראי
הדו
הפנימי
##גרי
##צועים
עיסוק
##ווין
הינם
הנזק
ארוכות
אקט
ושונות
הקרן
להשתתף
תוא
hd
מדעי
עלו
авив
לאזור
כרמל
לומדים
המיני
מוחמד
באים
הקטנה
במשק
שיהיו
לתקופה
##יסטיקה
##ובו
הוקמה
##פתחו
##ננו
##רגן
לפרס
תיאטרון
##כלל
яф
מסיבות
דעות
שמב
השניה
##ver
##למי
גגות
המסלול
##סקנה
משלי
ושי
המכשיר
ин
##90
##נאביס
הגבול
##rong
##פרץ
##שבו
תשתיות
##טוק
יציר
שחלק
סרטן
##רתם
הפיז
66
לנצח
##כנה
בהר
מבקשת
ושירות
הקטנים
הרלוו
המקומי
מנוע
beit
ייחודית
אגף
עלתה
האמריקאית
הישראלים
##צהיר
##קטור
מאוח
##וריית
החשובים
ווי
##ידך
במרחק
яффо
האיס
כדורגל
להשפיע
לגן
##בקות
אשדוד
האנרגיה
הלידה
הרבי
מתחילה
תפקידו
##טרקט
הקיים
מתמחה
אירוח
ערים
הקלי
לפעילות
נהדר
ביאליק
יצירות
הסיכון
מאוב
שתהיה
##צחון
אמה
וכבר
שנקרא
הזמנים
der
הטכנ
טוענים
הנביא
##ולוגים
בארגון
הסטודנטים
הרמה
עכו
התז
##יקאי
##דרגה
מוצלח
באחת
דוב
זהה
##גול
מחנה
ערכים
מחשבה
ניסה
##עור
##ליית
המכונה
בכירה
##כא
##חזר
##מינו
העיקרית
ערו
וחד
##וננות
שייך
##פסים
##וניברסיטת
##עדות
##יננו
מהירות
xxxxx
אפרים
הצעות
להי
המקצועי
ארגונים
שיטה
השקעה
והר
שניה
נוסעים
לידה
הערך
בסט
אמן
האנושי
שגור
שהמש
סטט
שתק
יבנה
בסדרה
מסק
הבנה
היצירה
הוקם
למספר
מאסר
התחרות
ואשר
מובן
strong
דומים
הביניים
הגורמים
נוחה
##מצים
##בחר
נעימה
72
בחינם
האוכלוסייה
##ולנו
המסך
בעלה
שורה
חלה
ציין
מחלה
##ec
##פיץ
##ומרי
##פלה
בוחרים
מסוי
120
בעבוד
##ירושין
מדריך
##ator
ספרו
##כנתא
##וויית
##כונים
העלייה
ממשיכים
רישום
תושבים
##כוז
דרכי
##ודעת
בעיית
ילדה
##יצב
בקרית
gt
##בנים
הצעירים
מתכת
פיל
בקו
למשרד
לפרסם
השוט
##וגרפ
הנוגע
שהגיעו
מספרים
מקל
אהרון
אורן
##סיקה
מזרחי
93
התשלום
לעסקים
כק
בנתניה
עצמנו
לרשת
צורת
הצרכ
##ain
##iy
##כליים
ישיבת
המחלקה
##יעוט
מהבית
מורכבת
החייב
##שכת
נפתח
החת
קרים
פנימי
נוט
##לקים
מיכלי
אייל
השליטה
להאמין
##ובא
תומכים
ser
##חלטות
התכנון
הבדל
הטקסט
מקרי
לשנה
בקבוצה
זכו
להצלחה
האוניברסיטה
רוד
משרדי
המשפטים
##יאים
הדיו
עקיבא
##רבעה
החליטה
mic
##מאי
##גון
פייסבוק
האול
הכרח
אמונה
חיפוי
##זוק
עבירות
הרביעי
לסט
נפלא
##000
לדיון
הורה
יעלה
פוליטית
##פעמים
מספקים
גבול
הנכס
##קרון
תקוה
ללמד
האיט
בחזרה
מאבק
משך
##ליג
שיט
##ריהם
##ייט
מינית
ללח
כף
יהדות
ידעו
עופר
הבכיר
אחוזים
ההול
##נסקי
נודע
מנד
איכותיים
##בחין
הטכנולוגיה
63
68
נפטר
נבחרת
##יטליה
##דרגות
לקידום
אויר
חסי
##ang
בים
la
הניק
ספטמבר
שנראה
ואפשר
מנשה
לחודש
רישיון
העיניים
##tm
ברוח
אסף
##ona
בגודל
הטלפון
יגיע
אנדר
מספרת
ומפ
בצרפת
ובג
החשוב
הרצליה
שהד
##כשירים
מומל
עליהן
פניו
ידיים
##ודיע
הערבית
מעשי
תיכ
היעד
מאמץ
##ord
אהבתי
אצלי
פועלת
רדיו
לשתף
היקף
רוס
מרים
המשתתפים
##בורת
הניסיון
כמש
ליווי
דרג
הצליחה
לגד
41
החקירה
מיטב
המשיבים
##בדה
##ry
##בדות
בביט
אסטרטג
שרוצה
תות
הנחה
מודל
פסח
her
בכירים
דפוס
מתייחס
תופעות
eng
ועדיין
וערבים
לתא
המרכ
והמו
תזונה
ופת
##פיר
יופי
ההלכה
##derot
נוחות
עלולים
הכביש
טיפולים
חוג
##ייקט
הגמ
ותה
להשאיר
כשהם
הדירות
סוציא
אינס
טיולים
cont
עמוס
##לר
דתי
נקודה
##צביע
הייח
נערך
מנק
##בנות
לפיתוח
##רף
ולקבל
המאבק
מנהיג
לעת
אנטי
בתוכו
הרגשתי
שבועיים
##קיף
ערי
##erus
##כתבו
עציר
מופע
בוו
##למד
בתאריך
טכנולוגיות
מפלגת
ילדות
ארגוני
##ופק
מאפשרים
באול
פסולת
הבול
אמיר
המערע
הממל
גבע
לחברות
לחק
##ואלית
הקרובים
נחמד
נרחב
##ix
בתשלום
##עז
##ודרת
איפ
בשעת
התינוק
בעבור
69
מתחם
##net
מיוחדות
בטוחה
##וכבים
הסימ
51
##מעת
בפייסבוק
לינ
טיסות
בלשון
##לטו
תעודת
מובה
ספיר
חירום
##גוריות
שבעה
מודע
איטליה
בנים
סיד
התס
##003
##ישן
מסכים
מסתבר
##פסו
##יכום
העיתון
האחים
סלי
ash
לצרכ
לשוק
הנדל
נבד
מאגר
אפל
השכר
אמון
החלטתי
וחש
מתאימים
בקריית
מתנות
יצאה
בהיסטוריה
לכמה
סרטי
וינ
92
תעשיית
ביב
##טיילים
התוכן
##ותרות
##צוף
נועד
בנצרת
שירי
מיס
תיירות
אשקלון
תוק
לוב
##יחסים
ותע
##זמה
הרוב
וממ
בצבא
אלח
שפירא
##ובסקי
עשרים
עבירה
גופים
הקשורים
לעזוב
ליפ
קניון
הגיל
גינון
בגרמניה
עובדה
##יגוד
פלט
ייס
מוספים
new
כיון
וכש
העתי
##ננת
מקבלת
הכספים
##נקה
sderot
##ינגטון
אבני
כעבור
##ics
רבין
תוצאה
עשיתי
מדהימה
##ult
הנהלת
זמנית
פיט
הדתי
לרגל
man
250
רשימה
##משלה
זוגות
בכנס
אשכנ
מחפש
מפח
שמר
שמעתי
לגוף
היהדות
##הה
וניתן
##שראי
העץ
בקיצור
##ליטת
משלב
לפתור
דיור
##בקים
עות
##והו
##מיון
העק
רגילה
##נהלת
הנוכחית
להפעיל
ובמיוחד
##ושבי
מוחלט
ישע
דרישות
##יזו
קראתי
עידן
##יקלי
הכלכלית
2019
לאן
sm
##אתר
הכנה
הניתוח
הרגע
חוזרים
התאונה
79
תנאים
בסיום
להודות
נתוני
וביק
המורה
הגעתי
##מיקה
האינט
פרופסור
בחור
76
תנ
פרא
מתרח
##ber
הקלא
בבניין
האישית
הרפ
במועד
מרץ
##כבים
הלבן
הרומ
איילון
ספרד
##לד
בתחרות
אומנות
המוות
##רישה
##לנו
עיבוד
חמור
מנהלים
כשהיא
ושמ
בשמ
בבת
לית
גג
סיבות
שיס
##מכות
פיו
עוק
ספא
רט
ונות
מסורת
לענות
דרור
וקר
קולות
בטי
ערבי
חשיבה
מעוניין
ההשפ
ובז
קיצוני
##עתה
96
האורחים
יומיים
ממי
המניות
נראית
##ופע
מוסיקה
##כמת
ינואר
גבוהות
מעליות
שמאפשר
##פץ
בהתחלה
להקת
החלפת
סדנאות
השולחן
הופעות
##ect
הנכונה
צורה
כור
הפרדה
##זרע
מדד
המשותף
להציל
ומאפשר
לגור
במשקל
##פרש
##שיון
שקד
בנושאי
המשחקים
ירקות
השע
לדון
מוגנים
ואה
##דמנויות
החלל
##מפיין
##וטובוס
##צק
##למו
השיער
הרה
ספות
בוע
##יעץ
טיפולי
לזמן
ארצה
##לתם
##פלד
בראיון
קרק
בגדים
##uuuuuuuuuuuuuuuu
##פתור
השכרת
##טב
החוקרים
בחירות
ודאי
אמי
נחושת
##33
המראה
##ריא
חלל
אהרן
אישיים
##ולית
קיבלתי
הצו
הטענה
##בתא
##בדו
רגשות
דקה
##ml
##דיקים
בבי
הפעלה
ובית
ולכ
##חתת
בערוץ
הופכת
##צרי
##וכנים
הירדן
נטען
##לאם
משפחתי
ומעלה
מסמך
פרסם
החליטו
סובל
##ניתוח
המטבח
המגיע
אחסון
להחליט
מוצאים
88
office
לבנון
##arm
ורד
המקרה
לנח
##25
הזמנה
הבדיקה
##יטרינג
טכנולוגיה
בבעלות
התעשייה
הפלסטינים
בכלי
שרוב
שאן
תופעה
ומר
##דג
fl
זקוקים
##יסא
הביקורת
גרע
מחש
התחלתי
בפנים
לתחום
האיכות
מחד
פונק
##פליק
אחז
בדיון
##יטוא
לעיצוב
##ופרים
הסכום
מסי
הגן
פוליטי
שהתח
היית
##era
המוט
היפה
מלמד
השראה
##חקרים
להקמת
##אתו
מוני
עמודים
הדיג
אמורה
מוכרים
למועד
זל
פתיחה
דגים
שישה
אלוף
מיידי
מודה
הגולן
במציאות
בעני
בטלפון
קריית
78
מלכת
מידת
המועצות
wh
שמורות
הערים
הקיב
##יתונים
אמריקאי
סיים
89
להגדיל
מצביע
תוקף
מצאו
חופשה
הרים
בפרי
הטיול
רמון
השיווק
##ידוע
לגיט
##ננות
זוהר
חקירה
המוכר
הדמויות
הופכים
##ork
דוגמאות
חולה
##יתוך
דיין
שאנשים
מייס
##ודעות
נוכחות
##alem
החורף
בציבור
מוסד
ושות
מקיף
שקורה
להקל
בתוספת
מדרגות
##פירה
נובמבר
השאלות
er
הצפון
מכירת
רון
באוניברסיטה
אדומים
יונה
המצוי
באג
העיתונ
מעקות
פסטיבל
לרדת
##ודם
החלב
לניהול
xxxxxx
##ניר
נכסי
##הו
כיסוי
שאח
אלהים
מסייע
הגלי
מורים
הסופר
באיזור
נופש
אוקטובר
נציגי
לירושלים
בעמ
##ורסה
קורות
התנגדות
אנרג
עדן
##ue
מעורב
מעדי
הדרכה
##מכת
מיליוני
הכשרה
הנוג
חוזרת
גו
חמאס
ככ
ושר
1999
תקרות
רצוע
שמכ
##ith
חובות
הטעם
מסגרת
עצמך
ובלי
בטבע
שלטון
ושב
תאריך
##ла
גברי
אלכסנדר
אתו
73
אבטחה
האמצ
מרגישים
באיזה
ביע
##רתו
המותג
לשיר
##זבים
התחי
וממש
באפשרות
האשראי
##שיה
מדויק
##סטה
הגמר
דואר
הביטוי
החוויה
עוזר
בטוחים
##24
הכהן
סגור
##ילוסופיה
הכרמל
##ימיות
מחבר
מנהלי
##ציין
на
חלקה
עוף
נשימה
##ולא
##גלי
##еи
במקצוע
בעמוד
##וללת
המבט
##ire
##ens
דהיינו
שקי
כצ
סטר
74
שנעשה
מפס
להופיע
און
החט
##צאים
##ия
לעם
יתרונות
תעשה
דיוק
אנא
אוסף
לנושא
הגענו
בריטניה
##כנות
והמח
יעוץ
קצה
בביצוע
ובהם
מתנד
לסגור
ומוס
שעשו
יואב
בעונה
##צינות
##שלנות
אלטרנט
משבר
הצלח
להנ
במקור
המדה
##בין
לצור
כתיבה
##למנט
פלפל
חמו
הרפואה
##לקי
חוקרים
לרע
הטרור
מיה
##וחרים
##erusalem
מובילים
לתאר
סיב
סגל
##man
כתבי
מוזיאון
מתקדמים
ייק
האדום
העולמית
נחשבת
הבת
תחנות
##ign
שותף
ха
jerusalem
המספר
בתה
בשבי
מהט
##פרק
הסוף
האמונה
וכיו
וסי
עליי
אנוש
פרטיות
עשתה
גמר
הקבלה
אחי
אליך
יקבל
למשפחה
להגדיר
##pr
התקנת
##מעלה
המיוע
##דיאל
ההיסטור
ציור
פינה
כניסת
חוט
חברתיים
ובמה
ניצחון
במוצ
המרה
u003
1998
##ימונים
המין
עמותת
החיל
באשדוד
גדרות
##בדים
עובדות
קמח
ראיות
##אונת
##ומדת
מקובל
##טייה
החרדי
##du
##רגם
מצליחים
נולדה
##פויות
בחצר
משרדים
##לולים
עיצ
##וכות
הבעל
מבחן
מרע
לבנים
סוריה
בארי
פוט
##ets
מלכות
כלה
הלל
בעין
##ide
עמק
מהווים
וניהול
הסרטים
הסתי
קראו
##יפל
שעשה
##לוות
##ian
בתחילה
דינו
שמטר
##סטלציה
ושאר
נפשי
הבק
העמותה
שיקול
הפלסטינית
מגיל
היותר
##int
##שלם
ארז
ובעלי
##ова
חלום
מינ
שיחק
יעד
הביאו
המכון
##23
המורים
##סמו
למכירה
תכנים
סדרה
по
השות
וזהו
##בדיל
להחזיק
מכוניות
אוז
פנימה
שעדיין
מכם
אינני
דימו
סמל
##נגליה
בענף
בכנסת
והמע
מוסיף
מקומי
הבנקים
##חדות
תרמי
זרע
##בטחה
הסביר
כרטיסים
גיוס
נאות
הצרפת
שביצ
באוויר
קלות
לנסוע
אחים
sy
אבנים
כדין
##ודנט
דצמבר
למות
כרמ
ומל
הזמנת
##ולמו
במרחב
הדוג
המועדון
אלפים
נהר
ההתא
ונפ
דרמ
##רדית
הבעלים
רובם
והמת
##יחו
##גבניות
ישי
בלונדון
בטור
##end
##וצץ
##כחות
בתנאים
יוג
לחסוך
חרדים
יחידת
ישיבות
הספרות
##יסו
הודו
תושב
המכר
ששת
84
הממשל
מתה
##und
להשלים
ביתו
הופיע
במחירים
##70
189
##ונא
בוצ
הפשוט
השיפ
הקיר
##ach
וטוב
##מצאת
עסקה
התברר
קושי
הודיעה
##גלו
הראשית
##לילים
##osh
ממקום
##тр
הנגב
קובץ
שרצ
פורט
pre
גלעד
ישן
איתנו
ודר
##מעו
דובר
האזרחים
##ug
הצעה
מהל
דשא
##מצום
הדרום
חולון
הסד
לשאת
מכונת
לממשלה
dis
המקומות
##ילם
סיור
מכונה
לבת
ינג
לפניו
הודעות
כבלים
##טרכו
בהרצליה
בספרו
טיפים
הפוליטית
##רוח
כלונס
אפריל
רעננה
היצר
לעצמם
לשיפור
בחלל
האשה
##יזון
כרא
דיגיט
קיץ
בחנות
בתקשורת
העצמי
גילו
הישן
ממוקם
##ריח
תקבלו
##וזיציה
כשע
##מז
בקצב
הפוסט
בחרו
##עדת
הגאון
##iel
##ופרת
אדר
דנה
האגודה
סלול
אוטומטי
במתחם
בגר
הוסף
ההצלחה
##וזרים
לטווח
ובעל
הדפסת
תובעת
הוי
לגל
ניח
עמוקה
האישום
התייחסות
דוגמת
אמנים
לנצל
שהתק
דוח
גלוב
הבי
קשרים
מבוגרים
לכלל
פיצוי
אלכוהול
הרצל
למשתמש
מרחבים
איד
עקרונות
שהט
##ומנויות
הפיתוח
מבוק
המסת
קצין
בשיטה
השחקן
##פעלה
des
חדרה
בינלאומי
##זול
600
ציבוריים
הבינו
##כבת
נכס
##ifa
מבוססת
##כניון
מרשים
תכש
תקין
חסד
הרשויות
מחייב
בשורה
פורום
למנה
השעה
מפי
##ros
##מותו
פטור
הקיימים
##ניע
בילוי
##פטים
החיילים
רמה
שתע
התנהלות
הזכ
המערבית
רכש
שאינן
מצט
משו
הדרכים
מתקדם
השינה
800
##28
מתג
זמין
לאיר
86
תלת
##רוויח
נמצאו
עדין
אנד
חלוקת
למניעת
במסלול
מקצועיות
נמל
עיון
עמנו
ציט
חסרי
המטופל
כאל
להבחין
##לקס
התאמה
אווירה
עצים
בקיבוץ
קהילת
רגילים
מחלוקת
והל
##ריטניה
##סקות
מקומיים
הסיבות
ak
##ניקוי
##ובץ
וחס
הוחלט
ללקוח
##יניות
##מפרטורה
##our
הדתית
לכאן
מיועד
##ילונות
נהרגו
הערה
מזונות
לישון
jtm
##דד
הוצאה
הערכה
המערב
קבלן
##ימית
ראיה
שכולם
מהמח
הנדון
לתיקון
ומאז
המפורס
##רבויות
לסיים
##שנו
טבעית
ולמה
##וצמה
##ניית
הסע
הארו
##יכוב
לחוות
בניסיון
מישראל
##צלמה
לשדה
הרווח
הנהג
הגרמני
##מתה
וראש
שבק
המנ
##פשטות
ולמרות
##55
פיקוח
ברכות
נמר
פומ
הכנסות
אמורים
סוו
לאס
אלג
ליס
ראובן
##ite
aa
הייצור
##פלי
##פלגות
שאותו
##ארו
##יזוק
##olog
שדי
לאומית
מפתיע
##נהלה
בהליך
לארו
##ייר
שכזה
הממוק
מפרי
נראים
##מיחה
תער
שבכל
המובילים
משטחים
בעיתון
בתו
##esh
##ליפה
##קציה
בגוגל
שפיר
ראינו
במחקר
הניס
נבנה
##וננו
מוזר
מסוגלים
ובעולם
המנוח
עליון
##ושינגטון
לונדון
##עק
התייש
באילת
והופ
סטנדר
ידועה
ורח
הכותרת
התיירות
לברר
ובנוסף
השמים
הצופים
המית
לענייני
האירופי
יבש
##גדות
החיצוני
המפגש
##ומח
##ick
ממשל
באס
מרוצים
נותנת
עוסקת
הקפה
נובע
רמי
סני
##נדבות
צא
מחשבות
אסת
חפץ
פלילי
ארוכים
שהוב
##פשט
##רטים
בחייו
מיט
##וציה
אליכם
בהתאמה
בהז
מרחוק
בהיקף
ממליץ
משטח
אורחים
כתיבת
סלע
לאב
קומות
פונה
##רגום
הריון
צעירה
ושא
שעליו
רצפות
מנגנון
קירור
נאמן
חובת
1948
קיש
צפויה
ונראה
##ופף
##פנות
רוני
קודש
##לחם
##פונית
הסיכ
אטרקציות
למנות
לצדק
צלם
חמים
##שף
##נצח
גזר
שקרא
נהיגה
הסקה
במובן
במלחמה
ערכ
##רמו
##ביות
פסיכיא
##לתו
##פקוד
היין
דיר
בסיפור
haifa
הליכוד
האימפריה
זולים
טעים
בדרכים
##יעון
בדירה
ומנו
##זהר
החברתי
להיל
ואביז
לבחירת
##ציונ
מיות
במבצע
דתיים
han
שנס
באזורים
הובלה
ידידות
בסין
נמשך
למלחמה
עצמאית
נייד
התפר
##דיקת
ורע
לנכים
מכשירי
המסור
חמה
והאם
מקסים
אמש
##ינתן
כיש
רכוש
##מוח
ומור
##ופיות
הדוק
הבתים
##וננים
ענף
ירון
המשבר
חברתיות
בשיטת
ניתנה
הזיכרון
188
##נאל
##זיקה
גשר
##ance
ופי
בטענה
מושב
המקורית
אירועי
מסח
בהור
הגיש
##מלצות
##בולות
כדוגמת
מטבע
ובכן
##וכנת
איפור
מפוליאתילן
הקבוצות
לדין
ולט
פירוק
לאינ
אוסט
##מרט
הפגיעה
להיו
נפט
ההליך
הבינלאומית
שיז
##יטרה
החולה
כמת
ויהי
לתכנון
##oft
התחתון
מחזיק
הוט
##וררים
לתביעות
##на
מייל
##ולר
הממוצע
הבעיות
ההפ
לבתי
המפורסם
ומשם
##ובלות
##bs
סביבה
הקה
מרט
תהליכי
מנגד
אסתר
תפקידים
חידוש
נגדו
##ונר
בינה
לחתונה
משלוח
אפי
##eh
##ביץ
##והי
##פוף
ind
להזכיר
חיובי
##ba
הפט
מבקר
הנור
82
השתתפו
השביע
חכמה
אגרג
המבצע
מציין
וירט
בוגר
ההצעה
##ныи
תינוקות
בכדור
הפינ
גוד
אישום
שותפים
mar
לקט
בחברות
כשמ
המכירות
בכניסה
##רבת
##וררת
##פקים
בפרשת
גרסה
מרגש
המשיח
הזר
המוני
כפול
ממשיכה
דומ
##ברט
והרבה
התואר
והמק
83
##ישובים
מצבים
##ובלה
בדף
##בחון
מכוח
מינה
עונש
פנימית
החרדים
השער
1995
מצה
מעקב
בפיתוח
גזע
המוקד
משרת
יחזק
דוקטור
בשו
ההשקעה
בתשובה
עבורו
בהש
עסקית
##ус
##ולח
ומשת
מרגישה
מצליחה
מתכונים
המזרחי
##פיס
לפיד
##רגשות
תחנה
ממליצה
בקלי
col
קבלה
איני
אצלו
הירוק
מלאכות
מצומת
קטל
הקריירה
af
תוספות
##ימא
סמך
בחודשים
השופטים
##per
הצרפתי
1996
סניף
##וטית
גורמת
##ги
עציון
ממך
ולפי
הרשמי
##תיחת
איכותית
##ירוק
מצלמות
הצהריים
##חדשות
הודעת
בעידן
##נץ
לקבוצה
##ем
עצמן
##ля
שואל
המוביל
בפג
לאיש
שבי
הקים
בשכונת
##יסוס
העבודות
ושני
##תת
חמצ
לפל
לפרק
##סמה
לשאלה
היועץ
פיס
למחרת
ביתר
בניהול
אחדות
בטקס
במונ
משפטית
##חלטת
האדרי
הסכמה
והחל
רעה
הלוי
כביכול
##נועים
מתכון
ביצים
הבנות
##נוני
האיחוד
פוס
בהתח
טוענת
תכניות
אינסטלציה
³ג
השתתפות
יימס
תשובות
לתואר
לחיל
הסג
##ריף
תלויה
באותם
##יטאות
##וננת
##פנו
##iya
המפתח
לצרכים
##yle
לימים
הפרט
מעורבות
מונו
הקלטות
משלה
פעל
משרה
בבסיס
להפרי
לנווה
##טוקול
תמצ
כרם
ענין
וגו
העליונה
ביתי
מאמן
##ופאי
חייה
השתתף
בסיסי
חיובית
##ome
ונד
אושר
ההוצאה
הארכ
עיו
וצבע
שהייתי
קריאת
##ופיים
חווית
##ברתי
סבור
##ולק
השלב
מפה
למשק
במצרים
לקרית
ריכוז
איזון
מתכנ
קרם
אינדקס
כלב
אדיר
##מיע
##להבות
התקציב
חזה
מסחרי
##דרג
ופיתוח
שיעורי
לילות
##וצרות
לשתי
עמה
וחי
זרה
נצרת
מסיבה
גופנית
עסקיים
##עתים
חומצה
מוחלטת
בטווח
מפורט
הזמנות
פנס
a8
##וניינים
חופשית
שהכל
תעופה
התערוכה
##66
לשרת
##אז
לאותו
87
לתרום
נהדרת
פגש
שירת
##וגע
שערי
להורים
המודעות
פברואר
##חדש
dr
##99
ויג
##טיקה
##ימש
לסיום
רופאים
הבכורה
חודשיים
##קדמות
##ציג
ערבית
##אנו
מעבדה
רשויות
בשאלה
הגור
משתתפים
הרשימה
נשלח
עמדות
ניקוז
בצע
למל
סה
חברו
##טייל
כץ
לעצמה
לשלוט
##ows
הטובות
org
גרוע
לעובדים
והפר
hash
##שרון
גדר
הצטרף
##סטרטג
מוסר
##מריקה
חטיבת
שהול
##ינוק
בידו
הניש
ра
##חס
זקוק
##ous
המחשבה
בחל
##צבים
##ילך
##ישול
השינויים
בפל
חוקים
נאלץ
מלאים
דוגמא
נעשית
מדור
במעמד
חודשי
הפה
מובילה
##22
האפליק
המסמכים
##בירים
שקר
להסיר
זיהוי
להרחיב
ההזמנה
התנגד
אפשרית
אביה
נכנסים
קדם
הדמות
##ווא
סמס
ריפ
השחור
inc
מחיצות
לוין
שבמק
תרי
אהוד
##ליכה
למטרות
ביניהן
נתנו
רצי
התוכנה
##ical
המסע
התקיים
במחוז
##תימה
הגרע
עונת
מכסים
ramat
הארוך
פרגולות
ומכאן
##וגית
מפנק
נתקל
##ир
בחינוך
סכנה
שעברו
ממג
שאחרי
##ational
הנושאים
נפל
רם
חשמלי
הכתוב
הנשק
החיבור
לחקור
פרנס
##בנית
המחוז
הכדורגל
יחידה
חתונה
קהילה
לחזק
תינוק
אמבטיה
art
##רשם
לעסק
המודרני
##יקרו
לדחות
##רעורים
טרום
הנאה
המהפכה
מעניינת
wind
לעברית
##aron
וסט
הכרה
האופנה
הכוכבים
לעתיד
שליח
##בקה
משקיעים
פרש
הביאה
יראה
למסע
נוהגים
הפתיחה
גשם
משתי
##ינור
אמין
##hem
1980
מוכרת
##נטרי
קיס
ההפר
עצמכם
בוק
מסעדה
##נקו
בנפרד
במבנה
##ודאות
ותא
1997
##ישום
ואומר
ניסו
hot
השעות
קשורים
מסוכן
לוקחים
דיז
חטא
med
יסודות
הציונות
הוגשה
פעילים
תחומים
##ליש
שביל
מוקדמת
שעוד
הטבעי
מודרני
ידועים
גוון
כלבים
לשק
באחריות
בתולדות
טבעיים
ארט
מעניק
שחרור
##מארט
קורסים
em
##וויץ
בגדר
הגברים
בליגה
##ты
##גיעות
ספחים
ag
הפרעות
הוביל
180
ip
שלק
קצרים
##נתם
לשכנע
נהיה
חיזוק
עוסקים
הצילום
##ובבים
##סאות
##יירה
העולה
שקרה
צינור
שהוש
##דורה
להתקיים
תהליכים
##מצב
קניות
השכונה
דורון
##פינה
תכולת
הרחוב
כתבתי
בך
##נועת
אחרונות
שתח
אובדן
משותפים
לתעבורה
##כבי
##נוי
האמיתית
עזרא
##נסיים
האכ
הציוני
המלאה
מוגבלות
עלויות
ברירה
##וטות
והול
פיזית
חזון
##ערות
והמס
בתר
הרצאות
סימני
דגל
שהוע
res
##חקים
אדי
##כרון
##וויון
מתכוון
ארצי
לתפוס
##מודדים
גרסת
אזי
##אתי
##מטרים
ובלתי
חסרת
חלקו
בענייני
בדם
המכללה
אבק
שורות
אובמה
מעצב
##סח
עיתון
ההסתדרות
##77
הרכישה
##לווים
##סימה
יעילה
##מוכה
להשיב
הצבאית
חייל
תשתית
בסוריה
הרווחה
##בסס
##רוף
החופ
שעד
לבט
##יאס
החברתיות
ואחת
דיל
יעילות
לתפ
הקונס
##נשטיין
הפסקת
יוצרת
זוגי
##חילה
##מינ
התור
בטלוויזיה
דעה
bar
לנד
inter
בסדרת
ועדה
בזק
לתמוך
קונים
ממוצע
בהיר
זג
באליפות
נסיון
בחולון
הטרי
הרחבה
במערב
##port
בדברים
היסטורי
העלה
המופע
דולרים
##גרפיה
מתברר
רבקה
רכישה
ניצח
בחצי
עודד
אפר
רבינו
שוויון
התחנה
by
tech
קנה
engine
מוא
השיחה
לנהוג
להצביע
עמדו
רוברט
טענו
##65
אחדים
יביא
אשמח
פותח
צפת
##נראה
##44
##מולה
סר
##ink
המפעל
הביק
שנכ
##ינוכית
##co
##уд
מתקיים
ותיק
בבק
לעומק
הכרטיס
מניח
מוסמך
נחום
הכרי
האנושית
בתש
רעות
##יפן
שתר
הפקת
לאשר
ממליצים
ענקית
##כיה
##קיימו
אייר
מורכבים
##во
תפס
##לאו
הפיצ
יחדיו
##כתוב
##ארית
יועץ
##רטי
קטע
מצפון
##ont
בישול
##יביד
##ואיד
הנמ
##חתן
הבירה
נפצע
בהסכם
נרח
הפוליטי
יציאה
העשרים
משלו
אמית
בינוני
##טוריה
למקומות
שורש
גרא
וכיצד
ne
אביזרי
בקור
לקול
האלקט
יכולתי
##ich
להתעלם
אוסטר
איצ
השיק
##יקלית
הצרכים
מסוימות
##али
הסק
לחשוף
משאבים
הנמצא
פיקוד
חקלא
רציני
##כבות
האתרים
##גובות
תעלות
те
לשוב
אומנם
61
הודות
עוברת
1994
gl
המלכות
פנט
##טיף
התחילו
חיד
משמר
איגוד
נפגע
להצליח
מצומ
##בלי
מודעים
ין
איחוד
הנות
קייטרינג
##פשים
צמחים
##כך
##רתי
הנדרש
תו
ואד
המומחה
ובתי
ועיצוב
רכבים
כוונה
##וללות
מחלת
רבע
בודדים
רס
מרתק
האז
הדפסה
מתחילת
שסי
ולפעמים
גדי
והור
##לקו
טופס
##ואליציה
##ishon
בשיר
אלעזר
מיצ
עיקול
לפיו
ופס
יתק
החייל
##מנית
קיצ
##orm
צימרים
דרוש
כיכר
בפרויקט
פניה
לוד
נחת
שטי
במחשב
הקרובות
הכנת
vi
##par
כמע
אפס
מסויים
המשתמשים
הרבנים
הכיבוש
שנוע
##ors
##שאית
מקי
הסלול
##גלות
שומרון
התופעה
היומי
מאזן
שליש
##ריץ
ומספר
##נועות
ההשפעה
ערעור
מהצד
אשכול
המשלב
קבועה
בספרי
להוראות
לסוג
##סיקו
##ימלי
מהנה
רשמית
ליברמן
ההודעה
השיב
שתוכלו
למדתי
חשיפה
יאפשר
עומר
בודד
הגרמנים
השיניים
מסוב
המקצועית
מטוס
חשבונות
לחינוך
ולפיכך
הציוד
##וסיות
ניתנת
עיניו
##נטל
##ידקים
int
שאלת
יתרה
מופיעה
החופש
תמורה
הקריאה
אתא
הטע
לשחרר
לצערי
לאחת
##ידאו
##ליחות
מקרקעין
##פגשים
בתמונה
לאמר
לגר
שמתח
ואנשי
קשיים
יכלו
גדעון
ריבית
##לכו
##ели
ותר
נגישות
זקן
##והב
פוטנציאל
באולם
ההחלטות
במוזיאון
רומן
פז
קוט
##נוקות
כידוע
דע
ליהודים
שעושה
##סטן
##תאם
##שרדי
האוט
המעור
ויצמן
אקוסטיות
##מתין
האפשרויות
ומקצועי
##דרון
טופ
הפרשה
ולעיתים
העסקי
##חנה
תולדות
חוויות
נכונות
נפגש
מלוא
##פקות
##itz
אנר
תאונות
לוא
וביט
בהפ
##דויק
מהיום
בדברי
עדים
בכבוד
קשורה
לבנה
##ומון
הארצי
ומנה
לאמנות
אחראית
לטובה
משיח
העוסקים
הליגה
הצעד
צודק
חזקים
מתפ
גבינה
##ימפיא
you
מכלל
עיסוי
משטחי
##בוש
מוכנה
##יבציה
##כיים
להבדיל
האקדמיה
##זהרה
קסם
טרק
המתאימה
ההשקעות
##ונך
מצבו
##יפיות
ובמח
הרופאים
נסיבות
אריק
מביאה
הביקור
לחדש
##ys
מהתק
##אלים
הישר
##צלונה
ציונה
דתית
המחבר
had
המשל
ואמ
##פיקה
##וחם
משימה
תנועות
##פכו
המבוק
האמריקני
דיכ
##מחות
שרוצים
אטרקט
##רחים
עבורם
רצו
התחושה
צורות
המשיכה
בדק
ben
העונש
שדות
ניד
המשימה
שבית
תשכ
##נוח
זכרון
הרגליים
הצבעים
##סא
##שתם
השדה
הכלי
המסר
הכאב
פרקים
מרן
בתכנית
פשוטים
1992
ולבסוף
לקרות
המשטר
מעניינים
נגמר
במכון
ערן
מטבחים
סיפורי
rishon
העיקריים
לשלום
ואלה
הידיים
##כתיב
וכשה
סורגים
חיילי
הצפוני
רפאל
לאלה
יחזקאל
כאבי
המבקרים
##ve
בסכום
במטבח
האידי
פוגע
המרת
##וחו
אונו
ממילא
לתכנן
פריטים
החוזה
המדרש
מבינה
##35
מגוונים
יונתן
##לוואה
הכתיבה
##פרות
פקודת
##gb
התחייבות
חיינו
בממוצע
נהוג
##טדיון
לאחור
car
הטל
היתרונות
בלוג
##רטון
לעצב
תפילה
ולהיות
התחום
##ос
ליאור
החנות
##נדים
העבירה
להשכרה
ברכת
שנתי
מותג
בימינו
##ומרת
בגדי
המטוס
שרתים
ממא
והכי
שביק
הכיפורים
להילחם
מצחיק
##כמות
кон
הניהול
מימי
מכונית
הציונית
בסוג
##יפדיה
נרצ
אומן
נזכר
##ביד
##ru
בהדרגה
##רכיב
##75
בקהילה
ביטומ
פעולת
חלקית
יוס
##וחרר
##חיות
לקי
har
##ינהל
נהנים
##ברא
cent
העוסק
##סין
והתא
בחדרה
מופת
עקרון
1993
פשיטת
מעץ
להדגיש
שיאפשר
מיידית
מאידך
##לקית
וקט
במשפחה
##ובדת
רלוונטי
##נדו
##נרגיה
אליי
##דרין
למטרה
בקבוצת
הסיכוי
פינות
פולין
ימינו
המתמחה
קדוש
##ילומי
גנים
##שרדים
דרישה
כראוי
שחל
תקף
יקבלו
להמ
##ld
קרח
inf
לחצו
שבל
מכה
אוטומטית
met
##ודשת
שמישהו
שלש
##ement
##כניות
הבלוג
700
##ועות
נדיר
האפש
באוכל
נועם
אא
למסור
גוט
לאופ
מחכה
##ומרון
##מנטים
##דהות
דורות
te
תחזוקה
סלא
מינו
להפיק
עגבניות
במשטרה
הערות
ענה
##יוניים
מרב
##צן
נהנה
גולשים
תומך
##יבט
טענת
מרמת
##אבי
##גייס
כאבים
זרם
דינ
משיב
לרג
הציע
##טרפות
כשנה
יושבים
##יטו
ומקלטים
וליה
מעגל
רבנים
##ודיעין
תקנות
ולתת
המתאימים
כחודש
הזק
אותיות
נוהג
המודרנית
לבריאות
וצריך
בנוי
בישיבה
באב
אימו
כמא
חימום
זור
תמונת
##בחרו
קובי
המדיניות
כתיב
##רחבה
הגידול
הציג
##88
הצג
תרומה
המונח
חשמליים
לחו
תעשייה
חבריו
המחנה
מצויין
חיצונית
להעמיד
יוון
ענת
ליטוש
ויקרא
##שיר
שיכולים
יורד
עוצמה
קיבלנו
סמים
משפטים
מעטים
חמד
##רועות
והרג
windows
ראשוני
הלכות
שהפך
בינינו
ארוחות
##ובעות
כט
המחז
מצוה
חמות
שתיים
do
##וטנציא
לפנה
בגליל
החלום
לניר
##טריונים
ובפרט
בשקט
ההזדמנות
##וטח
לאש
##וארד
ביצע
מלאכי
מתים
לחימה
ליין
##טרית
ונא
המתנה
סיטי
אנושי
ראייה
עליית
לטעון
לצרכי
##עבד
גדולי
סגנו
מייצג
ללה
מביאים
נכות
הקורא
חוקר
למוע
פתוחה
פלוס
הגולשים
##ולש
כולן
לאסוף
fo
מחברת
##וסיית
ev
קיומו
במחלוקת
תשמ
בפסטיבל
הוכחה
אינסט
##בהיר
נטל
פגישה
סקי
רפואיים
לביוב
האישיים
עזב
הלוואה
ביקר
מדג
אגודת
לשתות
##קון
בחינת
ur
מרש
##ру
לערעורים
הגנת
מרא
היטל
##יתור
לערב
##יהנו
העלילה
פלסטיק
המושג
##מטכ
##ורשים
סיכוך
סוכנות
מקומו
נפתלי
לתובע
##חב
הרס
ערכי
חנ
משפטיים
לחכות
הקדושה
##ile
מופיעים
ביכולת
##צתי
שלע
מחשוב
לקל
הוריו
מרפ
מרכיב
בורות
הפרת
שתמיד
וייס
חו
להגנת
ולעשות
דלא
העמים
מהז
בפיק
האחת
מותא
לנוכח
מעורר
##יהוי
בעצמם
מיח
ele
לגייס
##צקי
אוצר
במב
##דתי
דיגיטלי
##ומץ
##ואט
השפעת
##קום
למסקנה
שבני
הנפט
האנושות
##יוך
אתגר
מועמד
נמנ
ואיש
החשבון
כוחו
הפעלת
התפילה
המעשה
יתקיים
להתפ
מהנד
במועדון
סרטון
##ריכות
הסוציא
מירב
לוג
מצוינת
חניה
ישנים
##פרסמים
##ик
לצלם
משפיע
הבשר
##בתה
מתקן
ורכ
שמז
שווים
קת
באמ
##יגוע
הנט
במתן
ראויה
##64
##דיר
טרח
בכיתה
האווירה
דרכה
בקורס
מבוא
כבע
שאלו
##וספות
בחג
##זיות
שמאי
זי
השלט
שנשא
##וררות
שנוצר
לצפייה
שרכ
הקומוני
כלכלה
שומע
האנג
חרדה
בחומרים
זיכ
הבכירה
##שוות
##ינוכי
להגיב
##מדובר
הקודמים
אנה
##יעוד
הזדמנויות
במערכות
רושם
##כניים
##27
המיקום
ומשק
טבריה
פילי
הלחץ
משולב
חמורה
התמיכה
##פוני
וציוד
כבש
##וליטיקה
גלים
בביתו
הגרמנית
נותרו
תיש
מצות
בבחינת
המרכזיים
למשפחות
קלאסי
לפגוש
הארג
סנטר
הסל
##ana
##מיין
דקים
##מטי
##נצל
לעורר
##ath
לטיול
אחרון
המיועד
חולי
הספיק
אנגליה
ללימודי
##סיקים
הטיסה
כתבות
הונג
מחמת
סובלים
מסיבת
יוצאי
##ild
מרגע
בכמות
להסתכל
shem
מגר
##שתות
ובהמשך
##ארט
למציאות
חלומות
ומיד
והשקיה
נמוכים
##פחתי
מכללת
התגובה
להורדה
הכנסייה
שעון
hol
נתבעת
נעשו
הדיור
לרכישת
הנוף
הנכסים
בדקה
##סטיק
##ly
להפחית
אבינו
##ata
##פורניה
ולמעשה
בפסק
האנט
שהדבר
לאישה
נהריה
שאלתי
יופ
שהות
במגזר
מייד
לבניה
##ילוץ
רכיבים
החמישי
מהנדס
##יטואציה
בהנ
##מסגרת
##ery
כתבו
אזורים
מדיה
תועלת
שלישית
סוס
יישום
##יחסת
שבד
עדויות
תרומות
המדובר
צבאית
באות
וידי
מתוח
ברשימת
וכיום
לדרוש
with
להחלטת
##רוצים
##29
להטיל
הפייסבוק
במוש
##זקים
הסופי
העני
מכשירים
דודי
דעתי
התקנה
##טחת
לרפואה
תוצרת
מהותי
בפארק
##ock
לצוות
הכוללים
##שימוש
וכעת
נעליים
חישוב
##בולים
##34
לעוד
דבש
המיל
##vi
##פורמות
##יניו
מאמינה
item
המחאה
בענין
ביניים
##מעה
##לינו
החרדית
71
המקומיות
##מציא
יורם
##ולוגיית
ושכירת
##שלומים
הנחיות
למדו
שיפוטי
מורכבות
מתמיד
כפרי
להעריך
משתנים
נוטים
1991
ואס
##far
הפסקה
ארון
##ויזיה
איתך
##ניקים
אימה
המלצה
לפתע
חיצוניים
המסעדה
וימ
##les
הערכים
לור
##יפוח
##ליטו
מורשת
הוצל
עירית
בנא
נובעת
כמויות
ומוצרים
##שמת
מנט
##טוף
הועדה
##יחי
##שיו
הבריטית
בעיניים
סו
סגר
ма
1990
##rad
comp
הדברה
##קית
מתקדמת
בתנועה
סעד
אמריקאית
יומ
אובייקט
הסוגים
לוואי
המתי
מוגבלת
נשר
##גרו
כשש
חריף
הנמצאים
##ניתי
לקו
הנשמה
משטרה
בקטגוריה
החרי
הצגת
למשפחת
המאפשרת
הקא
להתחבר
מכני
העומד
ירח
##מוכים
פרידמן
סטודיו
להרג
מגול
##רוכת
תמך
ברשתות
##משק
מצי
ייר
הריבית
אכל
קביעת
לנט
כמח
מקרית
צריכת
##ילתו
ונט
ציפור
האופי
פרקט
דמותו
אזרחיים
דלקת
##מיק
התמחות
הפנימית
נניח
נתפס
הלכתי
עומק
מאוניברסיטת
לעודד
הסי
ההתייש
הממונה
צפייה
לאוכל
בבנק
וראה
הפא
עצומה
לבניית
לשמר
אולמרט
##חקיר
ליכ
לעקוב
אישר
##מידות
המהלך
נפח
no
##לור
##צעד
הראוי
שיקום
הקצר
לאף
##נגדים
צעדים
derech
חווה
##רוסופט
גיבור
##מאלי
##ест
נתיב
בטעות
הקבל
מנס
pet
הדואר
המפק
ומצד
להסכם
הצרפתית
ובאופן
##נטינה
הימין
אתי
הסיפורים
##צבא
הפסח
קאר
ההיא
all
והשת
ותקרות
##יוו
הכיר
המוזיאון
ניצול
##בינה
וכדי
המכירה
micros
מבטון
נאה
##זמים
הגג
ביהמ
לבו
נתח
מסלולי
המשותפת
בכר
##ואלים
שכונת
שחשוב
הכתבה
מציגה
באד
בטן
מידות
בינלאומיים
צדיק
ותוך
ואיכותי
רגעים
במחנה
הפסד
לסיכום
האויב
##נונים
האופן
##כיות
לצבא
##oth
בשבילי
הגיוני
בפניו
השלושה
so
באורך
עמידה
##68
כיהן
תרצו
##כורת
לוו
##לומים
הקלה
##זיל
הזמר
פוק
משימות
להיח
##ong
quot
סלט
וחמים
##ווך
פיזי
חלילה
לקור
##ראינה
נתי
התערבות
אויב
לינה
##דווקא
שקשה
באשקלון
ניכרת
ab
יגיעו
למכללת
שיפוצים
שכבות
מכס
לעור
##טיבי
ופח
מתו
הלשון
יער
וברא
ייב
רועי
ישב
זמר
שאדם
תשס
דירת
bus
נשיאה
שאומר
מלק
שהור
##כליות
הדלק
הכה
##ינך
הלש
משמעותיים
נלק
אתן
היותו
החיוב
השילוב
הסח
מנחה
להתגבר
הצט
מקורי
ותל
בחורף
סימון
מקפ
רוחב
טיפוס
בעור
ממוח
כלא
הדגל
לפרי
##פורש
בעבודת
האקדמית
יקרים
##לאל
וור
##וללים
בתמורה
##רתה
הקושי
ניסיתי
הומור
אסיה
ומתי
התיקון
עצי
מועצה
למידע
וילונות
צרפתי
המוסיקה
לגובה
ממל
##זרחים
ומדי
פתוחים
התחתונה
##ליזם
לטייל
רהיטים
להוות
לבי
ויפ
בטחון
לארגון
נעשתה
כשיש
##ист
נכנסו
עוג
להרים
##רוט
110
הנקרא
דוקא
בונה
קטגוריות
אדמו
##оз
##מלית
אוכלים
הנדרשים
##מלא
מגור
הלוואות
##יגון
תמלול
##צבה
בשב
בכביש
המטפל
##יגר
יורו
##דאי
הפלסטיני
הטענות
סיבוב
בקצה
הגבר
תבנית
בשיחה
בריכה
מנקודת
בשמחה
גופו
##סקר
##ומכים
##וליה
שזכה
##טגי
הבניה
לבטון
##ובדות
המשיכו
##מישה
לצמצם
עריכת
תפיסה
הבולט
##ולציה
הנדסה
פלסטינים
ya
חזרו
הוספת
צפויים
הרצח
בלק
במעלה
היוצרים
כשם
שידור
ישוב
שבג
יעבור
##כימה
שקיים
1984
הפצ
ואור
יסודי
מירי
##78
##נדט
פורנו
למשוך
פרופיל
הובלת
באורח
קילומטרים
התקדמות
בהריון
כבלי
חרש
ההשת
יציבות
לחגוג
קישורים
חוקית
רוחני
המבחן
##ובנות
בהשתתפות
לבאר
כבישים
שופטים
משמשת
במאבק
הנבחרת
ההפעלה
לסדר
המומחים
הפקה
per
בריאה
במרו
פיצויים
דויד
התיאטרון
ולראות
##ations
וילה
##ax
לחייב
פעילה
##דותו
##69
לסי
תוכנות
לייצור
ממלכת
שנקבע
תומר
החקלאות
##63
בחורה
שבאמת
חפר
9c
משלמים
במידת
פן
##עיין
##אותו
רעש
מילות
תפיסת
נישואין
##וקק
במישור
הרצפה
איום
##קביל
כיבוש
##ogle
עירוני
מזכ
בהיותו
הפארק
סימנים
האנגלית
my
להתקדם
אופציה
עפולה
מוגדר
##קדמיה
אורז
מוסלמים
תגיות
הספציפ
מסרו
להשתלב
זיל
נדה
רשם
להתפתחות
קם
לסמוך
דורשת
לנע
וידע
في
##ив
בספרות
##оп
האחרות
להורות
air
כרכ
בכיוון
התקבלה
הסרת
סביבת
כונס
בעסק
##ירן
צרכים
צופים
בזמנו
הפוך
איסוף
חתם
כפות
לכדי
##ומור
##ater
פחם
באהבה
תפריט
##ובדי
מהסוג
סיפרה
המנג
נזקים
כרו
נער
תאים
חפצים
המשפטית
בשמו
##ילר
##ек
סחר
שבעת
הרפת
מדברי
לימון
הילדה
##יצת
לתש
והתע
המגורים
נסת
##ירועים
פוליש
חבילות
נרש
##וכו
לרק
טעמים
בהוצאת
הזהות
וביוב
##se
צמיחה
##וזרת
בדמות
קמפיין
##ובליקה
##79
מאותו
ניצב
יריעות
החיות
##mm
##שלכות
מבטיח
קונה
כלכליים
לכנסת
הבריטים
נמשיך
techn
תקנה
נעצר
הצעירה
ספציפי
למנו
שכך
יפן
לתשלום
המדריך
nah
המאמן
##כייה
כבל
לקבוצת
שוטרים
##ינוח
הפרה
שמור
התחילה
מעיד
##ond
לברוח
באדם
בערים
ואילך
האוה
משטר
##תיעה
לנשיא
להרוג
התרופות
בקרת
serv
מסכת
לשער
מארי
סלק
טול
##45
1967
שרשרת
##де
מרכיבים
שנמ
הדסה
לאמ
בדרכו
נביא
שנג
קוו
##аци
שטחים
ופחות
##פסד
שזהו
השד
סופי
ייחודיים
הלכת
תשלומים
הקיימת
##נטו
בניס
##48
בקשות
קיומה
ארבעת
מעריב
מחל
מסמ
הנב
יוקרה
עבורי
הרוסית
השתמשו
לומד
ובראש
מקרוב
שמחים
רמז
הצלחתי
שולחנות
דפי
החור
##מליץ
התצ
נדרשת
השט
ברשימה
היאלור
מיותר
##גריה
הרגיל
בתחת
הדף
הקורונה
למרבה
העדי
להקפיד
אייז
ומתקני
ערוך
##יעורים
##ירית
##נדסה
##וליים
וטרי
והנו
מהדורת
אונלי
##מוניה
קשב
לאנשי
google
סגירת
אסי
מייקל
מחייבת
שידע
##פולה
##им
##פנה
רשלנות
בסביבות
שמירת
ביני
לכלול
##יווי
המרחב
קרנות
ההוראה
מעצר
##געתי
היתרון
משכנתא
שמלות
עובדיה
בעיצ
##בונן
microsoft
ביקשה
הירוש
בקה
באיטליה
##ונתי
מהמע
ניסיונות
גיד
לשכוח
כותבים
זוכים
אכפת
פוליטיים
משפחתית
מכח
האישיות
נפוץ
העובדות
ואינם
##יונו
בשכונה
בהתק
מחצית
##צינים
דאגה
המצלמה
היאלורונית
ידיו
לחיי
העובר
##unt
בקפ
מספרי
##נונה
##סיים
ובהתאם
חורף
בלוקי
ביקשו
רונן
ריא
נחמן
שינ
הייחוד
##רטה
##צועה
שרותי
אספקת
נמנע
סיפון
##פורד
טכנאי
לחוש
המהיר
יעשו
נל
לביטול
##פוט
נטו
##מותות
החשוד
הפעולות
הפחות
במחצית
שיוכל
קמה
מנהג
ההצגה
##מימות
##ביק
והרב
שהמח
##ירוב
בתכנון
ציצים
הבולטים
##יחד
שעושים
הנאשמים
העדה
##ung
##נגר
##והם
נסע
comm
בנגב
##יבש
##ובתו
לרעה
##פצים
וחר
אחיד
ולעתים
גלם
העותר
הופעה
ברמות
גורמי
גרוס
##נחיות
##akh
מגזין
הדורות
נסיעות
נקיון
אונליין
לבעל
סרצ
##עס
למחשב
מתבצעת
האזרחי
עשירה
ליטר
##21
אופיר
לאחרים
סטיב
בטל
##אוס
הירש
והיום
ההיסטורי
הצטרפו
משדה
זיהום
ויכול
##טציה
וכתב
התמודדות
עיתונאים
זמנים
להודיע
##נסון
הוועד
בשלום
עוצמת
תימ
לזכויות
להנות
שאה
1000
למוות
פוליאתילן
פרשנות
##אגה
לגני
המזל
ואינה
כספית
המרק
##יופיה
הבטן
מרצה
אורלי
מעת
אכז
זוגיות
##ורגיה
##פעלת
פסוק
הפלא
חיוך
שמג
##צבת
המקומיים
הרוחני
בעזה
מרוצה
כלונסאות
ליעד
מאפיינים
כשאתה
צהוב
במושב
רך
השתנה
איתור
הקוס
וחבר
לביא
ולז
##בלט
בקרבת
מניעה
##דויות
במלוא
בבריטניה
היופי
וההת
מחברי
##פתחת
מניעת
בתביעה
##eth
הנוסעים
משלם
לוט
##פוץ
לעומ
di
##ודעים
שקראתי
מעדיפים
ברוסיה
להיום
רבנו
נשל
סוח
##פתחה
בבעיה
##אליים
לשקול
דיבור
שכלל
פונים
למנהל
מעורבים
רגליים
החזר
##ניא
שדר
##משיכו
בסי
וחברות
מעניקה
ואלו
נוגע
##ורץ
דרש
בינלאומית
ישעיהו
##פילין
קהילות
משאבי
##קהל
אקו
גדלה
וחוסר
הפיר
##שנים
דגן
לעצמכם
גרמה
שאסור
אידי
הדרומי
הטבעית
בפריז
קווים
לבלות
##מצעות
שלמים
##ימס
בלעד
ופרי
##פורמציה
לענין
ארוחה
ורצפות
במידע
##זונה
כביסה
הישוב
##מצעי
##ונדי
וחשוב
ותשתיות
par
בפש
מלאי
בקד
##ליץ
שנצ
גבאי
לבוש
שטחי
##ולטה
בירת
בצוות
hp
חקר
בתוכה
הפער
לאבד
מעביר
מדברת
במכתב
##בקשת
יצרו
אפליקציות
לטל
שכאשר
81
והסביבה
##ory
פשע
דומות
אפש
אכילה
הסינית
בילדים
גמור
##כבר
רגישות
##vd
הסתם
גילי
אקדמית
להרוויח
פירוט
שף
לבדו
לחד
##כאון
שמיר
אנכי
שהשת
בקושי
הסובי
##מוג
בפי
בנח
##ייף
##וגרפיה
קבעה
##יאני
תאגיד
##בדוק
פריז
להביע
ст
שפורסם
לגברים
##ake
מטופ
חנוכה
הפסוק
רן
היכרות
##об
עריכה
##ונאות
##ינגר
בדו
##טרוק
השג
החום
קוזי
מבחינתי
בירה
hasharon
gr
##יצי
כראש
במרפ
לשאלות
מכוון
הנשיאה
יניב
נהגו
שולט
##ank
צמנטיים
##צמה
##שייתי
##מוט
בשאר
מגלים
הישיבות
לסטודנטים
לגשת
המקרקעין
יתח
כוו
השנתי
מתרג
להתקין
לפרסום
מלאכת
תקן
ואק
אחמד
הכלב
גירושין
לזו
ציפוי
מחכים
חשד
הפוטנציאל
חשבו
התפשטות
בכתבה
##ומחים
min
для
##ועדות
מיקרו
האט
##וויטר
שכבת
שנערכה
##קאות
יעזור
trans
הגבוהים
השיח
##יפס
##מצאות
חלו
130
##לונן
שכנגד
ההתח
מלכה
##ence
נתחיל
ולהצ
מנח
מנוחה
דרכם
להפר
##חוני
הפחד
הנמוך
מסעדת
הנקודה
##יגת
במהרה
נפשו
מרזבים
##ime
שישראל
שכדאי
ההוצאות
ts
מרוב
לרוץ
לתלמידים
1988
##נעם
האדמו
סן
הדרושים
נוחים
למבוגרים
כותבת
דמיון
חלי
ליותר
כשבוע
שעולה
למראה
נוטה
מזגנים
נוי
וטיפול
##נלים
##יכן
##אליות
ויצא
ללימודים
##יכוך
לאלו
##יבטים
##иф
הזקן
##נקס
משמשים
נופ
מגני
##ff
קוריאה
##ופיל
##פילה
mo
מתקדמות
המרו
עדכון
לנקוט
ונצ
סופית
המודל
מניחים
קריירה
inst
##וים
ברציפות
מפגשים
ובשנת
תתק
דודו
מינימום
מאלה
מימד
נתנה
##וסין
בשער
herz
המערערת
ומוצ
מפורס
המיוחדת
מטען
והשני
##פקידו
##כיל
##ומרה
##צנה
בעונת
שלג
ובפ
מפעלים
##ומני
one
להיפגש
כפתור
sup
ייצוג
מבקרים
תרופה
והביא
צבעי
לדברים
זוע
ירוקה
במפעל
מתנגד
בתרבות
פרעה
מטוסי
המדבר
ובמקום
שעתיים
1989
האפליקציה
האומה
רמב
##ודרים
אחות
ואן
וצמ
הרק
להתמקד
ששי
המינים
הגדר
העביר
ופרס
חיוני
##לעות
בתואר
צמחי
רגיש
מומלצים
מלאכה
מוגן
הנאצים
השכל
העלאת
מלכתחילה
וכולם
עוה
##נבו
ששר
##עדכן
דאז
בליווי
##ערובת
הידיעה
המרפ
צביעת
החודשים
##cess
ניידים
התפיסה
השקט
gu
##יקין
##גוררים
לברך
##67
טז
מתבצע
המרכיבים
pol
פופ
##פוז
לחות
זכרו
##יטקט
מלאות
לביתו
מטפלים
ושט
לאכ
בשטחים
לאישור
הוכר
ההתנהגות
##ביט
בקנה
סיס
התרופה
מבל
##הות
לשו
בבלוג
המצווה
למערכות
##eg
שאפילו
קבר
##בקשים
אבחון
אפוא
##בב
המידה
הקשורות
mus
הבמאי
דמו
לשלטון
דיונים
separ
##ение
иер
בחלקו
מדוי
ולדי
נעלם
הצדק
##оры
יוקרתי
ed
##ונאי
מונע
רגשית
תעלה
שופטת
##סטיות
בולבולים
##פקטים
מלחמות
ברגל
בחוסר
באנגליה
produ
זוכרת
##ование
יצור
##בחנה
קמא
##ולאי
ויפה
חגי
שמקור
הנהר
##ats
##ריצים
הירח
אשכנזי
##בדת
בסד
ומיוחד
מקומיות
תעשיות
##יוניות
ברלין
##מרק
רחמים
##алим
הפרטיות
שעת
בשלוש
האמן
##enc
שוטף
אסון
אמנון
בפק
##ימתי
##ינק
נעלי
פד
מועמדות
מאר
מבחוץ
קנ
תשעה
##רתית
גרג
דונ
##נתק
שעומד
לקחו
הארד
שעליה
מטרי
וצע
רשום
עולמי
שואה
from
##טרופ
ראשונים
מאתנו
טעויות
שומרים
העירוני
שאיר
##וענים
תחליף
וכאן
es
לימודיו
חברון
תראה
##רינה
אורגני
הערעור
מהירים
הסכים
##лу
##anc
ידיעה
אמינות
בעכו
מאליו
בסיכון
##וללה
##בלנות
בתוקף
כוונת
##ext
אחורה
היציאה
מרשימה
תיכון
האוס
##ina
מטור
##усалим
ופל
הופעת
מצאנו
מחודש
לצנרת
הרוסי
מוטי
иерусалим
cr
##רקים
מרפא
כרגיל
##ילס
בתיאטרון
גאה
הרט
הודה
מבודדים
הפופולריות
ארכיון
##ודוק
גיבוי
טמ
נרות
בתמונות
הלכו
עמיר
קמטים
מכסה
ראיון
עשינו
רצונו
מרכזיים
separator
זין
##משת
קרני
##95
שיעורים
כתר
מעדיף
מליון
כית
160
שנתן
##מניות
כיה
גביע
שנד
בכפוף
פגע
הקרו
##פם
הצלב
חבילת
תכשיטים
אוד
לביקור
גמישות
הבטיחות
מטוסים
##נהגה
נתבע
ויחד
לאותה
החשש
##יקול
מונח
הבנים
קטעים
##ност
נחשבים
נאמנות
ביטון
נועדה
##זקה
מהמס
העיסוק
גינה
הרדיו
שמתי
שהר
ברצינות
##וגניט
המצוות
פילוס
##ilat
##חזיק
עבורך
הראשוני
##מנ
##יחור
##בקת
הפסטיבל
לכלי
שנכנס
הערכת
להכיל
לטר
הדיירים
##lo
ההתנגדות
להשוות
##vel
##שוי
שואלים
בחיל
באם
##чес
המספרים
##ניעות
ומסת
ואינ
saf
התקבל
יהא
למגוון
קשיח
ונכ
ממון
##יועץ
##ניהו
הרביעית
בעיניי
המובילות
החדרים
##יכוח
מתקנים
המקרא
קרובה
##חקו
##38
ואב
קופת
הרגשה
ימשיך
##לימה
פסקי
##משכת
מוסף
הגרסה
משאבות
לתוכנית
מטפל
שתת
הפגישה
ואנשים
1986
##ישמיות
יתברך
##ריאה
מסוגלת
קנאביס
שלומי
בעשור
ברורים
##עג
ירדן
דורשים
דחה
רוצ
מוציא
##נחס
עניינים
##ья
דנ
השחר
עצמאות
קחו
ידה
הצרכן
תכלית
בהוצאות
איזור
תבור
##זמת
בריכות
המשפחות
##יסור
נפלאה
ששמע
שלושים
מעוצב
נערה
ייפ
מגל
##וברות
פסט
הראיות
בריאים
הצלחת
##מאן
באצ
הרקע
##stem
וקל
וילדים
האימון
ברזיל
##kel
בכלא
1973
רשאית
בעצמה
הצמח
סירב
מבוגר
##pg
אחוזי
לפגיעה
חלבון
לבעיות
באתרים
##קש
הגדרת
משורי
##פלט
מאס
האופרה
הופיעה
##ומטרי
רצף
nam
במפורש
התלמיד
##זקת
מסחריים
באמצעים
##cd
לצה
המכונית
נפוצה
סלון
לשבוע
מסודר
לבקשה
לדירה
השירה
##ная
להגשים
סבלנות
סמי
לחתום
חוויית
לקום
ששם
140
צרו
##ons
הגדלת
בחנויות
תיירים
יפס
טורקיה
##יכרות
##יצועים
הוראת
שנעשו
עונות
העולים
נמצאות
נקראת
##טופ
הרפואית
עגולים
בחומר
##יווך
יציב
השכירות
הגיוס
מצלמה
##איים
המוסלמים
נפשית
כשמדובר
out
קולה
בצק
המהווה
הייחודי
שפתיים
למכ
בגדול
##ינרלים
##נטון
בוחר
נשמח
##משה
##יטיב
ויטמין
##זרעאל
הקטע
לתוצאות
וכלה
בידיים
וככל
לגא
החוקים
9e
כפולה
המעסיק
תיבות
הניתן
ברבעון
##aw
##26
לייזר
להתייעץ
כרמיאל
ירושל
המובילה
סיפורו
##ימלית
מיעוט
מתרחש
הכריז
##פעלים
הנחות
מחאה
##ולב
שאכן
##יטק
חוו
במוסדות
בחזית
במבט
שכתוב
kfar
במקומו
##תייחסות
מזמינים
##ולמות
עזרי
לתהליך
רימון
this
והמצ
אינטרס
המנוע
##ary
לחופשה
עמודי
השרי
הדברת
להורג
סף
לרמה
לסביבה
הייתם
מרוחק
סיכום
לנקות
גליל
להיד
##ופתי
מדרום
##ומס
מנורה
להפג
היסטורית
לקירות
הסוכר
השוטרים
מגה
לתקשורת
שממש
שנגר
##לוס
בשלושה
##גלגל
##פתה
המתחם
ניתנים
תיקים
ham
##פויה
ורוב
tit
דבורה
לפתרון
הסמוך
##יצוג
סיכונים
מורשה
ערד
האני
התכנים
ניסן
הגרעין
אלעד
העדר
קדושה
בורג
מיקי
##ula
שראיתי
##ירוץ
ילדיהם
לחקר
בגבעת
##טרו
אינטנס
עע
ולפני
ממוצא
לאלי
רוטב
הסופית
##ינגל
לחוף
גרפי
אסט
דונם
שמעוני
הכבד
במצבים
כנו
##ילתה
העומדים
בזול
הניצחון
הצמיחה
מראות
באלבום
סיימה
בניינים
ענן
##יפולים
yaf
ונתן
עסקאות
##ניסו
##ופון
לצורכי
אבקת
גאון
מאמצ
שיצאו
##פקו
נוצרים
##ימיה
בגוד
תקבל
mod
פריט
ותרבות
ספורים
לשום
post
היג
תוכנת
בריכת
מגרש
חמוד
חתן
עודף
לגעת
##מרא
למוס
וילות
המשורר
##יטש
טיב
מקרב
התאים
הצדיק
מיתוג
הקוראים
##וארת
##יטום
##פרייה
##נרל
קבועים
##ופעת
נועדו
##ביעו
חרב
תערובת
הלחימה
הנישואין
שהתקיים
כיתה
המשקל
אחריה
##ירתה
אגרגטים
מקר
ובעקבות
שתא
##כנתאות
הלוואי
כשרות
ההלוואה
השכלה
הפקות
מודר
##ישר
##ילתי
לסוף
קנדה
צלעות
הקיימות
זיק
ימות
מזגן
##פסל
טהור
אונס
נשארו
שאמ
##ения
העיירה
##זא
לוחמי
היקר
וכלי
האחורי
##שילד
##ert
לאיכות
##ах
##ett
1982
דגמים
##פוג
##פטן
סבתא
אוג
##דא
ושתי
##דני
מקדש
לשטח
##וקיינוס
החשיבות
##בתו
הגש
בושה
הולנד
ממשק
ותמיד
המרד
מצור
שהחל
לדורות
לעניינים
וקירות
החלטנו
לטענתו
הוגן
עצמות
##נועי
##וויז
שחורים
סופרים
##חף
mal
##ליפו
מימין
ההבנה
סטרי
אליהן
באנשים
המנות
מדויקת
להכנס
חקלאי
לאמץ
והפך
חצר
##ווני
הכרחי
##שלמת
##יאט
לאהוב
רצועת
הגאולה
עמר
##למוד
##ועדים
ואביזריהם
מינוי
בעמק
המשרה
לאג
הגעה
##כללות
##תימות
שנמצאים
מוצלחת
ידעה
עשן
הריק
##px
והדבר
מתנ
הפסק
##ונתו
פעלו
שעם
הבש
##ange
אינטרא
ומלא
דרעי
system
נחשף
מצטי
אמצע
1977
הכשרת
##ותרת
ימצא
לנזק
בדרכי
תקלות
ברש
דירוג
הפלילי
##חרים
תימן
##צול
בוגרי
פעילותו
רדי
##צין
גרים
חביב
קציר
להתפלל
##ai
מפחד
הבצק
להגשת
##ולטימ
הפיס
engineer
כחצי
##ביון
המצרי
##קטין
שומעים
##ריית
המקס
##כרז
הדרוש
במראה
לייב
היוצר
גיבוש
לזוגות
שרים
בעבודות
המועמדים
בחוף
רחצה
פרדס
הברזל
חשובות
ארבעים
##ions
הרמטכ
המערכות
איציק
לקרב
ib
החובה
ניצן
כהה
באווירה
אמצעים
המכיל
נכונים
ותמיכה
תוע
מחסור
שמנת
מפעיל
גלגלים
כבדים
מתמק
בייחוד
וקב
החזק
##ידיש
בישיבת
תראו
מכילה
##עדים
הצדקה
מצו
התקיימה
נאס
##וזות
##אהב
הנחת
מיטות
הרמ
##כתבה
הרוק
משוכ
##וכנן
תביא
הציור
תקציר
ומרג
##98
מתייחסים
בוטיק
##סטרים
מאמצים
##בטחת
##po
מימוש
איבד
יבשה
##זרות
##ning
להתפתח
הסמכות
##גלל
שאליו
השביעי
למר
הנשימה
##פתחים
##ree
עולמית
dim
השעון
האמצעים
העותרים
##וסטרליה
לעק
קומה
מכתבים
mark
##אולוגיה
רעב
בברלין
צרפתית
##еч
##וקרט
##ee
למבנה
רכיבה
עמים
ההנחה
בצי
שוד
בלט
הסיום
המשפחתי
לשאר
המודיעין
תפוחי
בשק
בשבועות
##ייץ
והרצ
לבקשת
משוכל
gan
ההתפתחות
ריאלי
מהרה
בהתחשב
המפרץ
לנא
שהגיש
הקיצוני
עיתונאי
לדור
רוחנית
##נעות
הפש
דיכאון
העיתונות
##לויים
##נחלים
שצי
החזקה
הישג
##לש
רץ
##בטל
במסע
תביעת
הסוכנות
לרשום
הגיב
עימ
##בוא
והובלת
##קדש
##ere
משקאות
זרק
גרמו
הרחוק
במחלקה
ומתוך
##ישהי
המבוסס
אפרת
גימור
##פגנות
תבר
נשוי
##ליאם
לקיום
הטקס
הטכני
הנרי
טיפוח
בהקדם
##ניאל
הדעות
הבנת
מצויים
אגם
מצטר
##als
##ייתי
אבטחת
סוכן
שנכתב
##ראתה
יפות
שותפות
הפליטים
##יינת
פוש
עשירים
קינ
שסת
שרבר
להשתנות
לקבוצות
הקת
הסתיים
לשבור
המגזר
עבדו
1981
sheva
מסקנות
הקמפיין
אצבע
ynet
##נתית
##וחח
שבמה
במעט
מראים
מועמדים
מתוכם
##ион
בחיפוש
המסמך
##ات
##קטיבי
##שוואת
##ents
##קטוריון
במוח
הפדר
בדיעבד
##להי
יוגה
בכוחות
##anya
צילומים
בהנחה
סבירה
שהוכ
כיר
לשלושה
מתגלה
כללים
בהשר
##ותרפיה
המחזור
ורבים
התגובות
לתרבות
##צמת
מרובה
##יצו
ונוח
##ויין
החיסון
עצוב
##טינים
נרד
בוש
נובל
זגגות
חסידי
##צאת
שבאו
טומ
רעים
בשיא
אחרונה
התלמוד
##מימה
סאל
חקירות
השלכות
gat
##גדור
האולם
ריג
במחלקת
ההכנסות
##mark
מיץ
##יעד
החוש
view
ביישוב
##פטומים
הפלשתי
מיטה
העסקית
span
בעייתי
יפתח
החשב
##דנים
פעילי
מרטין
##יימו
לחברי
##צנות
not
הוגש
נכנסה
תיעוד
ליישם
##74
בעיירה
לכרטיס
לחנות
עשור
ציוני
לסיפור
##מיץ
שלמות
שנועד
היטלר
עמם
yafo
השמן
ישו
טרנס
##קבלה
פנחס
המקובל
##book
שוטפת
תדמית
אומץ
לכולנו
הגמרא
נלח
הקווים
שהוז
להיעזר
בלחץ
לנפ
eilat
המו
כחלון
##צלחת
יציאת
ירדו
bu
ההריון
ריבוי
ריצה
##ые
לביטחון
למתח
עשויות
החזון
ביטומניות
מנצח
##נוג
##נקי
ללימוד
בקונ
כשת
וישראל
המשא
להקשיב
מינים
מובא
שאמרו
לקשר
מהמקום
125
ובידוד
השיא
שאז
מודרנית
הועבר
לחול
רגש
ההכר
צדקה
בפה
התקשר
הדמוקרטיה
הפנסיה
ובמקביל
טב
##נעו
התלב
הורי
קום
elect
המנהלים
tik
השפעות
השיעור
מיקר
הטייס
פרד
בכיכר
ויתר
ימינה
ביצועים
##ידון
וקור
הטיפולים
##ולשים
להגנה
אדמות
##וקו
בסק
101
הרישום
³ג€
וארגונים
התעל
המסים
מחוסר
ההליכים
שימור
ירוקים
שנט
הפורום
זמינות
שבז
1987
ביובית
שריר
לקרקע
קץ
האבן
##וקח
בלוח
ונשים
##יבול
##ישג
היעדר
בנין
ובן
בשפת
לתר
מתכננים
##לבוע
1985
הסף
תקדים
שחייה
##שירות
##פריקה
תגיע
ריבלין
ומערכות
מנוסים
שורשים
900
במסעדה
במו
לארה
הצורה
מגיעות
שחקני
בהול
לפעולה
מחמד
##לוב
משנות
רומא
ובשל
הדיבור
היכל
##מלצה
בקרקע
בוס
לסבול
סליחה
בעיניו
נקיים
##ca
שכונה
##ог
לכבוש
##עיית
שגרם
תיקוני
העצים
בלעדי
סינט
תמו
שהמע
##מיו
חקיקה
תיח
##צעות
gre
להתקשר
הרגיש
##לותו
האולימ
##לולות
מלמעלה
בבחירת
##יעדר
פרסי
מעשים
מפנה
הרבות
##ייבר
לשרוד
מתנדבים
ובראשונה
הגופ
ופיר
מעבירים
##ומחה
##ווט
גרסאות
פעמי
למצפה
##יקלים
ושק
שאותה
תלונות
מקלט
לכתב
העשרה
בשע
הפתוח
להרבה
הלמידה
פוטר
##מלים
לערך
פתחה
רפי
אום
צריכות
המשקיעים
ממשרד
תופעת
##נטיקה
זוכרים
שתש
הקיסר
html
הגברת
לפרוץ
ashd
מובהק
דרושים
##דיט
נשכח
##ואליות
במוק
##ear
השלמת
בבירור
שמתק
מצפים
תורג
צהריים
ההל
לגדול
הסכסוך
רגב
ביממה
בבעיות
דוכ
טכנית
שעמד
רותם
סדרות
זכאים
מחברות
הליכי
וליהנות
שנערכו
כרית
והסת
ריצופים
הסיור
מנעולים
מצאה
הממלכה
וקשה
##רוגים
בהשק
אליפות
המיוחדים
הופיעו
##כוי
##רגו
מסודרת
לארצות
שלילי
הקס
ומרכז
ולמצ
מהמו
אלקטרו
נוסע
פיטר
שחש
סבר
185
תורם
הביצוע
לקהילה
הזכיר
מעוצבים
מעולים
manag
ashdod
##ימיים
מתקיימים
ביצירת
##קבוצה
פלור
הישנה
עברתי
נמס
שרירים
##טוס
יראו
צוד
##וגרת
בפורום
השגר
באמריקה
משתמשת
שמגיעים
מנהיגות
מייק
ריקוד
עשרת
ציטוט
שקיבלו
העיכול
צרכי
למסלול
קפל
נכנסת
ופרט
1945
##ועלים
שתד
##sk
מותאם
ובלבד
עונ
בהחלטה
נרכ
##39
שרב
שיוכלו
מופר
בקבוק
##קטיבית
עימו
זהירות
שקשור
בכוונה
צופה
מסרים
##לויה
אופק
ופחחות
להסתיר
וכמעט
מסוגים
התרש
נשכ
בצירוף
איריס
men
##ומיה
##ices
##רקעי
ניסוי
נטע
פנסיה
הילה
הנוגעים
ובסוף
ישמע
לחר
בקומה
להיראות
אזרחית
החשיבה
ושת
התיא
שהאדם
##de
ומות
herzl
חלוקה
תקינה
נימו
105
חיתוך
המתים
המוכרים
##טף
מארק
##רגיות
ושיווק
יהודיים
##יווג
גרמנית
לתקנות
בכסף
שעלה
מיקרוסופט
מונט
##צאות
וניק
תהא
כוכבי
כשהיה
אנושית
מרחבי
ועצ
סטודנט
בעק
וברור
לפנים
##ארה
שלמד
בליל
ככלל
רובינשטיין
ישראליות
לניקוי
מתייש
ובדרך
וואלה
ואמרו
הנקודות
ומשמעות
שחורה
בטע
סעיפים
קים
##וסטי
שמתא
הקשרים
sol
##ias
בזכויות
מתרחשת
##cl
משתלם
ברמלה
קוראת
הקשים
הדמיון
קודמים
בפולין
מהרגע
##able
יצליח
קבלו
תקשור
עיס
אינטר
נותרה
שלילית
הפיזי
שיחת
שהופך
המבנים
הסגנון
נטייה
מאין
כריסט
נערכו
הכלה
למיניהם
מאפי
הכפ
קורונה
הערכות
שמביא
בנד
##מלול
מזמין
אצלם
מיומנויות
לעצמנו
המחלוקת
חיב
הרך
עפרה
לסק
למישהו
ומול
##לבות
מדגם
##ower
מקנה
צילומי
טבעת
ההכרה
##בחנים
קובעת
רים
להמתין
וחלקם
מהעולם
הנער
נגרם
אמירה
תעודות
##שורים
להגביר
##ner
לקה
להשגת
דאג
1970
ביז
דרמה
##ובליק
הסקר
##azar
האמריקאים
##סטרטגיה
לשעה
בטוב
פניות
שהחברה
זוגית
מחסומים
לימי
##אונד
מאזור
##ורדים
חובבי
משיבה
המעוניינים
##וסטון
האקדמי
העתיק
בונים
##49
אוסטרליה
גרמני
שראה
##פסיד
וליצור
האמנים
השמחה
תעסוקה
מעיין
באפשרותך
תיבת
##uuuuuuuuuuuuuuuuuuuuuuuuuuuuuuuu
מבה
הקשיים
הוכח
דיק
ניירות
רול
שמאלה
העמו
##פינים
בשלד
אורית
עכש
מצע
הסיכויים
ass
סוסים
##גנים
גדוד
השישי
סאונד
להרוס
התו
איילת
מדהימים
תקלה
כוסות
העניינים
##בעתיים
מהארץ
##יוונים
ממלא
השוואה
מגוונות
בחד
הכירו
שדור
app
מכות
האוטובוס
שאינ
נוסדה
כנרת
netanya
פטריות
פורים
האזורית
הבריאה
האלימות
ובסופו
שבוצ
לתבוע
a9
##לחים
##רגנות
##אטה
שהכי
מבפנים
המנכ
שנוכל
רגשי
במשא
לעזרה
שבצ
קונצ
הצער
בשמים
מפרט
והחז
הפרטית
הפתעה
מייסד
##רכיה
התגלה
##צמו
תומכת
אדיב
ואש
1968
הבדיקות
לוחמים
ממוקמת
בצבעים
חכמי
שמצא
יישוב
נערכה
קליין
##כנולוגיות
למלך
אמות
מיועדת
באתרי
פיש
במכ
ההרים
במילה
היכולות
מאופי
##קדמים
קופות
##ואנה
כמוך
קדש
מזהה
התחומים
מתפשר
##נחת
הממ
ברוק
האירוח
אורת
web
##לווה
##из
עיראק
תלויים
מתפר
יזם
אמיתיים
בחדרי
המזרחית
##ייקטים
שלבים
בגינה
בזאת
##יאונים
המגרש
כתובות
החוג
הסעות
המייצ
במפגש
##צעי
##לג
##uck
המכש
ואג
השחרור
מטופלים
ויהיה
##משו
כדורים
##ליקון
ברקע
הזזה
בכלים
מלפני
##ינורות
כואב
בקבלת
החמאס
ראויים
בכיס
בערבית
אגד
חינ
בפירוש
ומן
שיצר
להפליא
sk
שטרם
גפן
##ראל
##למית
ההופעה
אפליקציית
עתיק
בהסת
רצינית
המחזה
וקיב
הנני
u003e
למדינת
אזהרה
טלפונים
ברעננה
האחראי
קנס
פתחו
סוב
##כרתי
##לינים
סמו
לקד
##ale
המגיעים
אנס
##ושל
##ubl
נדב
ופול
##זבז
התנג
בתערוכה
הרוגים
הקטנות
חרף
כשח
השמות
קק
יהי
הגדרה
##au
מוסק
הירידה
השף
היפים
שנותר
תמה
הקרח
##ур
הסיוע
כותרת
יעמוד
פורת
מארץ
קיל
בבא
האיסור
גיב
מסויימת
העירונית
הראה
עבורנו
sch
##קרתי
##עוד
בגוש
ההתיישבות
##рав
ולהבין
ההנהלה
תסריט
הולם
##רגשה
מרפסת
##וכחה
stud
שנולד
אלן
בנע
##ירותו
##37
בבורסה
קודמות
הפיקוח
##משים
ממרכז
הלבנה
##וטף
בנקודה
גמל
ייחודיות
##נחלויות
להיב
המיועדים
ערכו
הענין
בגני
יתן
tikva
ישבו
בעצמי
פוטנציא
התודעה
##יגור
מגמה
ישוע
משתמשי
בדין
יחזור
מלכים
לראשות
kh
אצבעות
רוטשילד
ועתה
רובין
קקי
ולמש
##ונדק
##ופילי
אסד
לרופא
כעס
באבן
##וטן
שאחד
המכתב
ובב
בתעשייה
led
בלוחות
העצמית
הפח
מאיפה
דפנה
המודר
מצבה
הרחק
שממנו
ליגת
קידוח
##נדב
##ומיום
בפוסט
רפואיות
##זיר
##יסטן
להעיד
ללבוש
צוק
הואיל
עזבו
עירונית
הפכנו
##raph
לגבות
המעמד
הבגדים
החגים
##פסון
##iber
הגיא
האמריקנית
ההצטרפות
##ליפים
מהמת
תרבותית
לדמיין
##רימה
##צץ
קלאסית
כיתות
לעובד
וות
##ניינות
##מטה
יואל
הקימו
לבחירתכם
חולק
קינג
חנן
שאוכל
##ציץ
למוזיקה
הנסי
בבלוקים
הצלה
##מיט
##ושלת
בברכה
עמנואל
מתחום
הארצית
ביכול
אישרה
המועמד
##אנית
##פוניה
גדלים
המלכה
דוחות
וכתוצאה
שאותם
פנתה
וכפי
בצו
לצרף
מקצועות
בשכר
תעודה
שמריה
קז
ав
הדגיש
##נקת
מעניקים
יאמר
##жен
בסרטון
בנפ
חמאה
הגיר
הרומן
can
ביפו
הקברות
המבוססת
האינטרסים
מרהיב
הפרחים
לקריאה
כדורי
1941
באחרונה
li
ומעבר
המושב
תלונה
הקישור
כשאנחנו
קטעי
בשנתיים
##iyon
##סטון
טון
##еры
הרבנות
מוציאים
וטע
1983
לארגן
ספציפית
מארג
ברנר
שנגרם
u05d5
דכתיב
בקי
бе
במר
למשפט
##ליין
אדירה
עס
זכור
נאור
בנקים
הצופה
1939
##ורשת
הורדת
הוותיק
שמסת
##ליאל
רמלה
1969
ופור
נסו
וכא
##urs
שאיבת
עיקרי
##חקן
במתק
האהוב
בהודו
הסורי
בוצע
מודעת
##צאי
##נהיג
והמא
sec
ההיפ
לעיני
בבניית
קבצים
ניסים
דש
בסלון
ההגדרה
רווחים
##שבתי
גלגל
נפרדת
1942
מעשיו
##ase
שכתבתי
##שאלה
מגבלות
בקבוצות
##רבעים
לזוג
##סטינים
אינך
עסקת
צוואר
לזר
מקרר
##iss
##סיף
תפוח
והריסה
hadera
האוניברס
בגא
פנייה
##עייתו
קונג
##שיי
קידוש
בנמל
מכמה
##ירתיות
מתקיימת
הידועה
והפעם
טכניקות
יליד
הוסיפה
מעצבים
po
דמוקרטית
המגמה
נפגעים
##יקון
תמצית
##kelon
##ров
rec
##act
שלבי
למחוק
ashkelon
1979
הנייד
נופים
ביקורות
צמד
עישון
שמעו
יכל
ומביא
בכס
כרך
##וארים
סמכויות
gro
החלקים
למדינות
המלווה
מאש
הלשכה
הוסיפו
כמוני
##כבה
מכינים
בייצור
המפה
השדרה
##פצ
לבנק
שיפוט
op
##גני
מחבלים
מקבוצת
ירמ
האופניים
במבחן
##קהילה
טריים
תאונת
בשווי
##ica
בוז
לתושבי
פגישות
אשם
ולהפוך
נושאי
המאפשרים
התמק
מעמיק
לחשב
שבדרך
mig
הגדרות
##קף
חזות
הבריכה
הסכמי
##גענו
ומסלעות
ההרצ
##ודור
הבנו
שרברבות
הממו
הכוכב
תהיו
1975
טילים
העמוד
##ירול
tag
לכביש
פער
כוללות
טיולי
פשוטות
טרמ
##אימו
##יסטיים
##play
לרמות
הצגה
מוצאת
טכנולוגית
פסל
##מלות
pe
##ומדות
המנוחה
וגר
שערך
תלמוד
הספינה
מציגים
##oh
##לאס
לנוע
חומה
##יוור
עוגיות
שיכולה
1944
שוכן
השורה
בדור
##ings
הערוץ
בלימוד
להיג
הגדוד
משפח
תשנ
שמשת
##ех
ורוד
גט
מתוקה
מהחברה
##טיינות
צבעוני
תחושות
מחלקה
השרים
אקדמי
ושומרון
הלוחמים
בתיה
הילדות
mitz
ושלא
##גלס
##ורבות
##ירט
אורות
דוחה
הסכימו
ההפקה
תצוגה
##ומניה
עלים
##ילוט
ומנהל
שקבע
תאורת
בהודעה
הפרטיים
האבטחה
חלקן
yeh
לרצות
##מיש
המנדט
ללחוץ
הציגה
חוצ
האזורי
מנוף
שמט
ומצא
ממתי
נשמה
המטבע
##יהור
לחיבור
1965
לנוער
עבדה
למחנה
שומרת
הסברים
וראשי
##ולף
##וען
וניסיון
הכתב
מתקופת
מחליט
מאיה
לכדור
נוב
נעמי
נאסר
##מחו
האופט
##מונית
##אלב
החלוקה
להית
עוזרת
מקורית
רבני
עורכת
##ישלון
המוצא
שינו
##יותו
הכללים
##קנים
האלקטרוני
##בורד
נכל
##to
##צלמות
ובתח
כבן
סרב
##ии
לתקוף
gen
##וויל
מנדל
##והבים
הריסת
הקיבוצים
החשיפה
להיפך
להתערב
וושינגטון
##יצע
##פעילות
יזרעאל
מקיפה
ספור
המתאר
אוי
ההט
לבטא
פוקס
##85
האבות
לחוויה
dav
בפרשה
שכבה
תאפשר
עדינה
##רגלים
עבודתם
##רחת
גס
בחינה
שנשאר
##מצה
החכם
אסטרטגי
ראתה
תצא
שווא
והגיע
הרחבת
ליתן
המאפיינים
הסובלים
יחיאל
ורוח
לרחוב
##חינות
סבורים
mag
חרו
הפרלמנט
##נדרטים
##ram
שכזו
פריק
dimona
בחט
להסתפק
##36
לעובדה
אפליקציה
פון
כרכור
sl
הנדרשת
##פלות
ששימש
לפנינו
בשלבים
פישר
אהיה
מחפשת
בסביבת
אמריקאים
ברפואה
ההבדלים
##dal
גבריאל
לחצי
התזמורת
חריג
##ינוחים
נגינה
##47
לפניכם
שרבים
##מסד
למקצוע
בספרד
הוציאה
התקיימו
לפרש
פלילית
ומשפחת
בעבירות
##דתו
היקום
חולצות
##וניו
והרו
הממוקם
##אנה
בהד
ידם
הקירות
ממשי
מסכ
דיאטה
מעמדו
מדידה
לשכור
ווד
וורד
מסבירה
אפור
שמיעה
מאכל
חשודים
ממספר
חרדי
מקרקעי
ולאח
הפרעה
אימונים
קרקעות
rel
ומוע
מליטה
צבאיים
הדיווח
טיפה
החצר
הראו
ביפן
##אותה
אופציות
שכמעט
##קדמת
##סטרונו
בכרטיס
חריפה
הקרק
ולהגיע
תרבותי
##גתו
ברדיו
אולמות
ושירותים
נפשות
##dr
למלון
##ליס
וחל
נרשם
מעשית
לחיזוק
וביקש
news
##מוקרטיה
צעצועים
פליטים
##ines
נופי
petah
גרב
זרוע
הודיעו
נפלה
1978
מצבי
ולהביא
שתוכל
לעונה
המורכב
הדרישה
סקירה
##רמנית
נפתחה
הרצוי
sw
טים
והתי
הגישו
##סטיים
מתמודדים
הברכה
ענייני
סגנונות
תבוא
מדריכים
נתונה
ps
צדדים
המיטה
שוחות
הובילה
מבול
##באס
שוורץ
דינה
הסב
##atch
##ctions
##32
צחוק
תקיפה
בשונה
170
מחוס
דעתם
ms
טס
##df
להתקבל
שגורם
כמוהו
##צאו
למקרה
read
שנאה
ושע
רומנטית
בסיוע
jpg
##יפורי
בינונית
מצומצם
הבהיר
ואו
##יהום
ופרופ
לחדרי
מסורתי
צימר
נמד
בממשלה
1972
рам
לעדכן
ועבודה
##פריסין
המסורתית
##פלגת
##יפית
בשליטה
הורד
הרצוג
##סקנות
מהמצ
##כתבים
##רקות
##ey
##לוכל
##יינות
השמיים
אוהד
##ילונית
תמשיך
##חוף
תקופות
החטיבה
ערפ
נחמיה
בקריות
##נדבים
##ail
השבעים
גירוש
חלבי
מכוונת
##ומבי
ומכל
פרוב
הנייר
סלב
רגלי
ומגוון
##ology
##ardes
##וכמה
##יטורים
ואביזרים
קרמיקה
אוזון
ועסקים
מאושר
להאריך
החופשי
kark
בירור
ממד
פנימיים
לנגן
המעי
נמצאה
1947
למשהו
דליה
שעובר
rosh
הכותל
גיליתי
##דירות
##והות
חית
בקטע
אוכלוסיית
##אזל
מצביעים
בכורה
design
##ull
לזכר
התשובות
וביום
##פונט
סתימות
בגז
פרחי
et
מיכה
haem
בביה
ידענו
מהחיים
ארק
להבהיר
זילבר
תיפ
##דנית
הרשמית
למשטרה
הליכים
מסויימים
##גדלים
לגב
מתייחסת
פעילותה
אלמנט
שפי
ממושך
ארצית
national
##פילים
מחזיקים
סדנת
שהיית
מעבד
שאמור
העצבים
הנתבעות
##פרסמו
afula
פורטל
סיורים
שחקנית
האיגוד
פירושו
לתורה
##old
##מפרטורות
מדבקות
העצום
1949
קיסר
נופל
מנועי
מעלים
למחקר
פלסטיני
בחרתי
יהפוך
##יכולוגיה
##ages
נלמד
הרומית
המציע
בקפידה
ונעים
104
##זמות
חסידים
מודול
##mi
המתכון
איור
##ונאים
מפעלי
שהנ
בחרה
ויום
##פיעים
בתוצאה
במלא
יציבה
1976
בהירות
עוגות
##זלים
קניית
נפרדים
ברט
ניל
כשלע
הסגן
הקסם
פרוייקט
103
מרכזיות
צדיקים
מפלדה
סרי
ка
ממצאים
ובמע
מדליות
לירות
מחודשת
##ומנו
שמעולם
##גרית
וטל
מנווה
##טחה
להתרשם
חדה
אלדד
לכוון
לואיס
שלמרות
ממגוון
בקירות
##ובנה
האופציה
לחלל
הער
קוסמטיקה
קנו
ליאת
##וצב
מלמדת
נון
במיל
סודות
נערות
haemek
##ление
רציונ
בולטים
היחידי
בעשרות
שאיננו
more
idt
הקצה
ישראליים
עוגת
##ליב
גרעין
כדורס
שנוס
דורית
##כהן
בצלאל
##וסקס
דחוף
סכין
הממצאים
למגורים
המטרות
מקדם
הבדלים
היחידים
pardes
שכות
##מטית
עשורים
לחלוק
בהקמת
up
##orn
cons
הטבעת
מטרתו
1974
לטעמי
נעזור
לרשותכם
וקי
אופקים
השוואת
דפים
גולדברג
יצאנו
##קרן
##ואם
מפריע
מהעיר
##צרית
למאבק
מיסוי
העוסקת
הרצאה
הדק
350
##ומב
אהב
לשירותי
המפלגות
וטר
חושף
הנסיך
במרבית
חיסכון
##rol
פלד
באיזו
##מטר
נזקי
אידיא
מעוררת
##בקשו
יושבת
מנוסה
פריצת
הניח
יצרה
המפר
צלי
##יווד
##דינת
התקנות
מתמחים
יעדים
תיקונים
הפסיקה
כזכור
מבעלי
ממצרים
לתנאי
נוצרה
בענן
העברה
הסתיימה
ממזרח
מנורות
##ניעה
בממש
דרב
##uk
ההתע
להתכ
עיקריים
בפגישה
במחזור
הכרתי
המרחק
ניהל
מזיקים
משמאל
חלש
מחוי
נרק
יכולתו
במנה
מטפלת
ובטח
השמונים
בחבר
מתוע
מוסרית
מתקשה
##uth
חסיד
מזרחית
תגובת
כיפור
הסוד
##га
מחזיקה
לקיר
בתרגום
הגעתם
akov
##מידו
גוונים
המחשבים
העניק
##טרוקציה
המטה
במכשיר
לשינויים
מתוקים
wik
התרגום
##ימפיאדת
הגבלה
מוצקין
##לאמית
חתונות
הבסיסי
בשבילכם
הימני
המקצועיים
שנחשב
##גתם
וזכה
האותיות
תפרי
גלישה
כשנתיים
הוזמן
מאותה
לחילופין
מערבית
##טגוריית
בנוסח
סוכרת
##ובייל
ככלי
##קנו
##עלה
שאומרים
ul
והשפ
למדה
פייר
שכירות
cam
##יכל
קוש
כהונתו
בתורת
##נסית
לוגו
בסרטים
שביט
##וטרים
##פגינים
והייתה
##מידע
התחלנו
לממן
המושבה
##יסוף
החופשה
##וריים
##פוטרופ
לוס
בעדינות
ולמד
פרקטים
בנוכחות
בחרי
תעשו
home
הפרקליטות
הרפובליקה
авт
ירדה
זולה
זיתים
בוגרים
מתאימות
מלט
שיקוע
הטבות
בסיסית
מפלגה
##ii
בלבנון
##ידם
##חיל
nahar
הגשם
באירועים
class
##רכבה
הדדית
החברתיים
האביב
ראיונות
חדשני
ייא
פיצה
##מכו
נבה
נגיד
ציינו
באישור
וכלל
לוה
##ציר
שגיא
ברה
karkur
במופע
וממילא
השתי
הביקוש
בחקירה
שנועדו
gam
##76
quo
צבאות
בוב
##להב
סגול
הפילוס
ולהק
מאפשרות
ממועד
ובקרה
סנד
אימא
שלחו
מטעמו
צוח
בקל
ואינט
המוסדות
המלוכה
סוגיות
ca
עדה
הדרישות
תצפית
ושימוש
החומ
בראשו
ובאמת
לבחירה
הצפונית
נבנו
צער
התעסוקה
הסוג
בלו
תכונה
שימשה
ספינות
הצילומים
הכושר
חנוך
בהשראת
לשמירה
קנייה
##שש
בצפת
עומס
בגרות
ריפוי
דיאל
העיד
לבניין
##יקלופ
שייכים
##פללים
##יטס
migdal
תרכ
בסרטן
דיוויד
sam
ns
са
##לתית
##ירם
##נהדרין
איתמר
הרלוונטיים
בוודאות
המבקר
רווחה
ממשפחת
משובח
106
פנוי
שיתופי
##תיעול
בנכס
אדריכלות
##גתי
##שרתים
גרעיני
##ולדה
##ועת
style
שייכת
מהפר
##מארטפון
באק
##ותח
ששה
מחויב
פלוני
פולי
bra
##ss
ניצחה
##חתים
גורדון
מילא
##חונית
התייע
יריחו
##חקה
##חחחח
לאינטרנט
המקורות
הסרטון
יצרן
##קבוק
לתובעת
הציפור
##יזציה
צח
ההסבר
##mail
שניתנה
ומשא
לכו
אזולאי
##ערת
עצות
להכנת
סידור
בתחתית
שריד
למימוש
אזרחות
שעשיתי
רעפים
טועה
לבג
גומי
החב
המתוק
שפשוט
עוצר
שעליהם
השרירים
מעמיקה
cre
זווית
הנופש
מבתי
ומדוע
הייחודית
מוניטין
רוג
בלונים
##וכם
להשתלט
ramon
שביצע
בוגרת
##שימו
אשל
לדבריה
מהפכה
109
פרנסיס
בשמן
מסייעת
##טיבית
סער
יוב
סגנית
u05d9
לנגד
בטבריה
מוסרי
##נבא
חזית
bet
ערכה
ויכולת
מתלב
התסריט
св
מכילים
כיבוי
##שראה
##ahm
הארגונים
ההסדר
##זיק
##פרנס
##ина
נמוכות
נולדו
בניתוח
##רכתי
ספקים
##והל
שהתא
דיפל
לכנס
לתאי
##72
מרווח
מתחי
##נעים
לאד
להציב
המרח
חסן
##בקו
##כיו
##els
כמס
נראו
lo
יצירתיות
102
ומסגרות
סיע
וקיבל
אגרות
נאשם
שעלו
שטרא
כליל
בראון
בידיו
דלי
בעצמך
פלג
להירשם
בחוות
##קא
уп
אחריהם
בהוד
דרישת
שוטר
פרוץ
##הר
##שיך
хаиф
וניס
##line
לאיזה
נגיע
בשינוי
הסכנה
מאורג
##מאית
צבעוניים
לואי
משכורת
##נרי
לתמיכה
הארדקור
ובמש
ומרו
התשע
karm
תקשרות
לספרות
שלשה
פקיד
טרומיות
קרינה
##кии
##יגן
##сс
זב
##ינציה
##ריזות
מחויבות
##טורים
שהמו
##וסקות
הנפשי
font
בנסיעה
תואם
בגביע
ציפיות
bi
ועושה
1943
בשלל
מתר
אדמת
הוכיח
חדי
וחזר
הנמל
במייל
אינטרסים
הכתובת
##יטינג
הפונק
##פלציה
החלון
хаифа
בגרסה
שהיום
sim
פוא
עלילה
##ידורים
##ומל
רבת
del
לדעתו
שהגיעה
תפקידה
##ניינו
##פז
משמעית
a0
בדימוס
להצט
בסיבוב
טלפוני
במודיעין
עיין
לאשה
טוט
לגבר
והגד
מגדלי
הנוחות
שדווקא
ולאפשר
נחר
להתחתן
##כפר
בדואר
פרה
##בקרים
המאור
מתכוונים
ורדי
##ел
הסרטן
115
בתצ
לילי
רוזן
דיגיטלית
##ראן
שמתאים
מעי
##ולוציה
היער
##טס
בבד
וצוות
גוב
שגרת
כנה
ביעילות
בוצעה
עותקים
לגדל
מחובר
טוק
העלות
ונוחה
##דין
##נותו
##ואש
ההקלטות
תמיר
קיפ
##ליסטים
התקווה
הנוצרים
משפחתה
התקן
הנחל
כוחה
זכי
וקול
##וחלת
וכולל
david
תרומ
נסגר
העו
תופס
##שותף
ואיר
החלומות
מובנה
סיפורה
שחיה
אפריק
פוליטיקה
שבסופו
שוחד
##ילויים
##ев
הגבולות
חקלאות
מקה
title
##ומנת
ist
ואמרה
מסוכנים
ונמצא
בתקווה
זרימת
שהוקם
קרבות
עיכוב
מכלול
לחיצה
##קטיקה
יציקה
##ומטי
יונים
לתנועה
לפיצוי
ארבל
למצע
בקריאה
המדהים
##sl
גיטרה
מקו
מוצגים
לטבע
המופיעים
ההיסטורית
##кие
מינהל
דווח
טקסטים
האיטלקי
הבחור
בחופש
העז
בפול
מסוף
החשובה
גורל
בחשד
##ירותים
לקחתי
##ואליים
##וטובוסים
שהוביל
##ика
יהוש
##נקציות
עוזי
לעצמך
ic
054
מעצם
במגע
הקבלן
הכשרות
טיר
שתצ
yav
##יפוק
ומתא
##ניום
לדרישות
הפיל
צפונה
תתקיים
ואהבה
##שבוע
##31
##ייד
נמשכת
##יטן
רקב
בהפר
התיאור
להפיץ
הרחובות
הבטיח
מעתה
##זקות
אמבט
ממושכת
ספורות
ברכבת
קשרי
arad
רשימות
בסימן
המצרים
עמל
הזוהר
##ואלה
##ידק
דייו
##רנו
שלכל
משאר
בכלכלה
הצרכנים
וכנראה
והשוואת
מבוט
לצער
ימשיכו
סמנכ
מיע
הליבר
ge
pc
הבורא
החזה
הבסיסית
ליבו
אוכלוסייה
##מכה
הכותב
עשיית
##ארס
דנק
להמליץ
##קיימה
תרגול
עדיפות
בכח
המלאכה
העיקריות
נכבד
אדוני
##צרפת
##וגרפי
הדיגיט
נרשמה
בתעשיית
##ליסטית
ותפ
האיפור
העכש
##יטוי
יגרום
ופג
הראשונית
ובעצם
מוטלת
היסטוריים
ביער
להעברת
מחמוד
נערים
במועצה
מעריכים
התאמת
בתנ
שבנו
##דקת
יוזמה
שלווה
הראייה
בזהירות
מאסטר
לכהן
אכילת
בעיתונות
hy
העלו
העוגה
ההתחלה
108
נחתם
להיא
בארו
הפיצוי
ההכנסה
סדרי
נתתי
##ומלץ
משי
##וסטה
##בורות
תפקוד
חותם
הגזע
ואוכל
הועברו
ובנייה
התוכניות
##תית
מטבעות
בטיול
לבדיקת
יצאתי
המשו
בכם
מסירת
הרכוש
הקיום
מבוצ
בגישה
##בחרים
##da
הקלעים
המוכרת
מגבעת
עורכים
שמלה
ניתוחים
פרסומות
שנקבעו
דעתה
ניב
אלים
מוזמן
גרה
ההכנה
במוסד
מאנשי
טלי
טוביה
פליירים
##יפיור
העיתונאים
##רטיות
לתקרה
קלוריות
אזורית
mot
גדות
##נוכה
חיידקים
זמינים
ומחז
חזרתי
מישהי
##ובדן
##ממות
##ha
שפית
בוצעו
מלכ
##land
רונית
work
לניק
חקלאית
##ove
##צעו
חמישים
##ניחה
אספקה
נכתבו
נדחתה
אסיר
##ric
שהסת
ומערכת
ההתב
למשמר
בתחנת
פקס
התחייב
הטרא
אחידה
if
ברצלונה
צוע
צמצום
כדרך
פעלה
שהוקמה
##ил
מירון
##וכרת
מעוצבות
כים
לסל
תפילת
עידוד
##פתעה
פרסים
לנכון
##מסטר
yavne
תמצא
מטורף
התרחש
בקריירה
אלקטר
הגעת
u05e8
מכולם
מדריד
עידו
חזקות
מדעית
##gin
נכשל
קולט
הענ
כישלון
המותא
##מאים
החוקר
##ושש
חמשת
מוצג
##orld
המדו
לשולחן
##נציונ
אדל
ניסתה
במקרקעין
display
דמעות
book
באותן
##ube
טיעון
גאולה
הפניקס
גרין
דמוקרטיה
ההרכב
##fer
##tra
הרכבים
לצרכן
נמאס
usb
אלקטרוניקה
נאלצו
בכי
ילדיו
קמפ
center
##לחמות
והלא
שטרן
החני
##דיס
##טאות
##נטין
טניס
מייצר
גלא
הקודמות
ביכ
##ושט
שיתק
כשק
וחת
לפור
מנהיגי
אלפא
אסטרטגיה
בגמר
וכיוצא
תעשייתי
##רועה
ההשכלה
xml
כמק
יסת
בשיטות
תן
הגיבור
מסד
מדגיש
צוואה
מאן
management
זרות
האיזון
גבינת
מחנות
##bc
במות
צעירות
##יקיפדיה
הקדושים
באתי
##נחנים
עמידות
karmiel
שלפי
לבשל
לארוחת
ודרך
עצב
המסורתי
ציד
תסת
##ент
קפלן
פיה
are
לפרוש
סביבו
מולי
השבועות
להשתחרר
השלמה
שבחר
האשכנ
האתגר
בליגת
##יווח
הלג
דיווחים
##מהות
הגופים
חתול
ושלי
אנימציה
שיודע
##רסו
היבטים
ומגיע
לבא
באקדמיה
##ליזציה
הדרומית
יישאר
ובאי
סרטונים
כשאתם
##פתו
##ition
##ומיו
מקווים
חילופי
למטבח
הניסוי
gal
הלט
החם
ותיקים
מטיילים
למקור
##סטרול
הלחם
mitzpe
היוצא
השטחים
הקצב
יינות
פרסמה
##פיקים
פליליים
בתיכון
המדרגות
באז
הביו
היחידות
זא
##מתנה
##ימין
הכוס
ורש
לפה
לסת
ביריעות
מצלמת
ההנ
שיקולים
מקיים
##רקת
1950
בפנינו
השומן
ובעלת
נוצרו
הקניות
##וטט
##ise
לצייר
text
##צלת
שכונות
אדני
סינטטי
ניסויים
זכותו
בוחן
מוסיפה
לחברים
במסגרתו
באף
טעימה
ומפרי
איינשטיין
##יבד
נשוא
נפלו
שומרי
השתתפה
רחוקים
שלטים
ארמון
מיסים
mos
##נתקות
במאות
אהוב
הבישול
משרות
למעמד
##ולתו
ירצה
שאור
רכיב
כמד
מורי
הזיתים
פורץ
חבורת
##ומינ
המשכן
אתגרים
##וערת
רום
חנייה
umm
מבי
העתק
לפרט
הקהילות
פגם
המפורסמת
המכשירים
והחברה
להחלטה
רוסית
##וכניות
לאוויר
##נבל
הסיני
תהלים
המדיני
בולטת
בהשפ
קורבנות
מהמקרים
ממקור
תערוכת
תשואה
התחלה
ומידע
תאונה
lets
1940
הכנסו
בשאלות
והתרבות
הקונגרס
חנניה
קולו
בסמ
##קרית
שהוגשה
מתמשך
שושנה
כדורסל
דרמטי
לשה
החמישים
##גיות
מניר
הבינה
##זוקה
לטוס
היוונית
אינסטלט
למתק
לתחנת
משב
נשת
##כשירי
##ifi
באיז
##62
וגדל
מסלולים
1971
בעובדה
מרוקו
בחייהם
su
התאגיד
הובילו
לשלוש
לדלת
רומנטי
דנן
סניפים
אמונים
בצהריים
שכולל
ושאל
בחסות
בידור
##ute
החכמים
מציינים
##ברנו
המרכזיות
הנדסת
מדרש
מהנ
ארת
חוששים
ובוודאי
data
##מעים
לצבע
מגש
מטעמה
רחוקה
##ис
לאבן
fahm
##יאוף
נצא
יהודיות
ביתית
בסל
מקורה
לעזאזל
הספרייה
##בייש
העיתונאי
ריקה
שרידי
ויכוח
##ינב
שימושי
תברואה
##ופם
יומית
קיסריה
וחול
equ
אינץ
רצתה
שקור
ישלם
סמסונג
##ימנו
##וצית
למדנו
הרפורמה
וקבע
גלית
ששמו
מסתובב
שמריהו
מתנהל
להתמודדות
והדר
תשת
מייצרים
חושש
פטרי
##צמות
העשיר
המיסים
בנש
הגשר
וביניהם
שמספר
מערבבים
לוחם
גבה
תלות
за
לתינוק
##קונט
##שבי
להמציא
מייצרת
בתקציב
התכונות
לתקופת
##ירב
ומערב
בסיסיים
מכנה
סוק
החכמה
trail
באמצעי
פוד
מפורסם
בוטינסקי
לפרויקט
letsiyon
המייס
ליטול
בחתונה
אבנר
הפופולרי
חלוץ
##פרסמה
##ואידים
אביגדור
קרט
חלפו
לכוכב
חינוכית
##גמה
##ניסות
הייעוץ
כללה
השיבה
107
כשהייתי
שים
להתיר
##יזכר
nazar
##פתחויות
לכסות
יעלו
יתא
המדיה
מקוריים
##ера
##ריכי
ומשפט
להכריע
תרמ
ייתן
לעמודים
לארי
ענבים
המוסר
שופר
הקובץ
סובלת
חובב
הביע
יהלום
##מיך
טכנולוגי
##press
##וויין
אלהי
הוקמו
וקרא
פשרה
המיזם
מקש
וקצת
במחלה
ייד
קנדי
publ
נזילות
נויר
##גדיר
יעקוב
ומהווה
ההיג
אדומה
פרשה
##יימר
בתוצאות
במכללה
##ליקה
פריד
nazareth
הכרת
מיניות
קוטר
בצומת
האוכלוסיה
##גדיל
בדיני
##וסת
##יעורי
במעבר
מלכי
sal
זלמן
הניקוי
##itt
הנאצית
הירושלמי
מדיני
הפי
דימונה
להסיק
אחלה
הבטחון
##קטורים
הגלם
מדווח
ציינה
נחזור
שונא
המערערים
בוועדת
##זע
נגיש
שיווקי
##טיס
והיינו
##יעונים
בבתים
החשובות
תצטרכו
גינ
תריסים
איים
תפילין
ההצבעה
חמורים
וריכוז
טובת
##פגעים
##וביות
אחיות
סינית
החזרת
לשחרור
גינות
נסים
תחל
המבוקש
ועדות
השמאלי
קבעו
מלווים
מעריך
שבב
שככל
וההרשמה
מרתקת
תשהו
##ern
##רקם
בעיראק
לבעיה
המושלמת
מסוכנת
מתכות
בקטגוריית
למשה
הקנאביס
בהרחבה
פרצה
עלולות
המגן
חזן
est
##בוי
אטיאס
בשבט
##כית
##ואנים
##גדר
הרחם
היוק
תרצה
##כסוכים
לכר
סם
מריה
המנחה
##קרר
מסכימים
זכריה
טיס
##רחה
להתקרב
1960
מבד
##89
בזו
מצטרף
##bi
החורש
от
ההערכה
אחראים
day
השמלה
עמך
מוטיבציה
זבול
##צף
לכבד
איומים
##כולות
מציאת
##ראיין
ועשה
להסכים
חגיגה
המסגרת
דקל
עילה
תביע
בלום
אופנוע
##ms
נראות
##יקוי
הכמות
מעידה
בקולנוע
הספרדי
ההיר
הגלוב
בחלקה
מעוניינת
המשכנתא
מגדולי
דקור
##בפני
##עינה
משקה
טרו
ללוח
הבכירים
##טמן
הייטק
הרגשות
חדשנית
מאכלים
ענו
##סג
לביקורת
שילם
המתרחש
זיכרונות
עולות
לנוח
בברית
שנבנה
цион
עסקו
לחקירה
кар
##ויז
המרצ
תיקי
דינא
##חוב
##כד
פטרו
בזירה
ירושלמי
ле
ההולדת
מרוכ
שנותן
מהכל
קולק
הצגות
החתימה
חיש
##ילב
##יפוס
מעורבת
##שיץ
ולשמור
שעובד
##pace
מסדר
מלמדים
בשלהי
##קרוב
##צעה
הארוכה
לשדרג
צרה
ממדינות
מפיק
תערוכה
ומאוד
ומעולם
##42
האמון
mon
לאומיים
תערוכות
ביוון
##יוטה
הקלאסית
yehud
העמדה
1964
להתייש
מוביט
מלאך
בשירותים
פטר
הארוחה
##רייה
פורומים
במודל
##מצן
ציורים
דמוי
בסע
##יצוץ
לרשויות
##שמו
##חריות
הזרים
בחוזה
האיד
תוצר
הפקולטה
ופתאום
לחיס
##וינות
שתייה
##ופסור
להשקעה
עבודתה
להפך
סיפרו
החזרה
##טיוב
חוזרות
הפנימיים
זבל
##61
##יצית
לנשיאות
##בטח
בתוכן
התמורה
market
סידורי
##ade
קצרות
בעניינים
הקובע
##פחים
המאו
באמנות
הרשתות
кир
##מאל
##work
והייתי
שעובדים
מבטחים
למדעי
אינספור
##ירתי
הידועים
אינטגר
זקוקה
ההם
מיזם
##ונתיים
סגורה
בעצמכם
ec
שבעים
מצויה
וייח
##יזים
הדגם
שמול
בחס
לדווח
הפגנות
בודק
בלשכת
נהנו
פוגעת
בדקו
שמחת
תקליט
שליחות
פוליטיות
משירות
שמופ
##ישנים
קליל
בשבילך
הבוגרים
##ירתם
כסא
וגור
המקובלת
מבטיחה
##еты
הנפלא
inv
##חדל
עא
בספק
בזמנים
תיאר
ומדובר
לאות
חדשנות
והבל
תפעול
טיימס
##ונתן
אתיופיה
עולמות
לעלייה
בפשטות
##הג
האורג
להפנות
משקף
מחלקות
לתג
##סלב
##זוב
פינו
שברשות
משלים
בטכנולוגיה
ההתקשרות
פנינה
##אלץ
יצטרך
גופני
##מנתי
ביהודה
ינאי
שהינו
שרע
מבריק
הזוכה
יוצאות
הורשע
u003c
השטן
safed
החסידות
מקובלת
טפט
##יטית
שהמדינה
##וריו
##иш
המסקנה
בתאונת
חתולים
מהתח
סטריט
ממול
שבפ
128
עימות
השיג
תרגיל
##וסס
קח
יזכה
הדפוס
למצרים
לדמות
היצרן
מערע
האינטרס
בהרכב
מסתי
וללמוד
##יבתו
הקפדה
##יכתה
הסוהר
תורמים
מהנו
מכבר
קליפורניה
התשלומים
ор
##מפוס
החמה
##יגית
המצויים
מתפק
נועה
שבבע
פרטנר
##ьят
מגיש
המופיע
יומן
##עורר
עסוק
הבכור
להקדיש
בועז
עצה
סנטימ
נורית
נספח
כחבר
שהיינו
кирьят
1956
אקוסטית
##פרא
##אריות
בכור
חווים
##ומביה
פרידה
##באללה
מבאר
הפריטים
##ated
לאמור
אלוה
מוכיח
הבחינה
חילוף
זעם
ולנסות
לייצג
הביתי
##טרקציה
רלוונטיים
הנר
##צבו
לימד
##ards
מהמט
לפתיחת
הונגריה
והוסיף
ניגש
נרשמו
בורא
המשלוח
מיומנות
בוועדה
##מקום
גמיש
##ife
במתנה
באיש
לתיק
##סתו
שטיח
פשט
מעיר
להעתיק
ליתר
שבכ
סמית
##נתח
זהים
הנבחרים
מתמדת
services
שמענו
##פליקציה
בגב
##מקולים
1936
שעלול
##זבת
צליל
בטכני
הופת
הנמצאת
שכב
העובדת
ממוקד
חינוכי
לגמ
##כוני
הפירות
##כתו
ובמס
גוי
שבאה
עולמו
ובתוך
בעוצמה
בשאלת
האף
במשהו
בארג
רכשה
משפיעה
##ליהן
לקולנוע
קולינ
להתגורר
נמכר
ממעלה
גינת
קוקוס
אורה
##ליגנציה
ובתק
השוויון
אחיה
מזר
בסמים
hag
שגד
אנוני
מפעם
ההובלה
לשניים
הדתיים
ובמקרה
בוטוקס
##דתם
לתה
בשורות
מדפסות
##קרו
הרף
מנעולן
תסמונת
במוצר
כרוך
##גית
אריזה
לשנים
בשידור
מיליאר
מושבים
מתבס
לעיין
המשאבים
##חתרת
##ных
הטכניון
מתארת
אנדרואיד
##צמן
אסורה
##דשטיין
התפקידים
החמישית
משוחר
שבעל
herzliya
טוני
המסחרי
חסידות
##ري
##דמית
במיקום
שהביאו
בסת
מגדר
אשמה
##יכי
הדגים
##יזוג
צוותי
יזמים
הנסיבות
##פעילה
חילוץ
##פעת
##יסטיות
שעבד
##71
מורג
התאחדות
בתקופות
##ינסון
נפגשים
כוונות
לשירותים
ועי
לספירה
##מאה
ועשו
הספרדית
##73
שמוצ
##נפלד
play
intel
מעסיק
##בדל
במדיניות
##ood
יהלומים
מגדיר
שמנים
בסיר
המבוגרים
הכיכר
##וחד
##שלוח
מדרגה
الم
שחם
##ev
תאומים
להתרחש
הריכוז
דיי
מאוז
במעשה
הרעיונות
האנטי
אעשה
גרניט
המאמץ
האהובים
נשאל
האזרחית
שמטרתו
הטה
##1000
במדליית
מהמאה
שקיבלה
הכור
bat
המטופלים
טכנולוגיית
מאוחרת
בגלי
והמה
הרבני
##חורי
רופ
זמינה
##רטיב
חיסון
אדריכלים
ממות
המומל
סכסוך
לתמונה
העשור
hanna
הגלילית
that
לאותם
מסדרת
הוציאו
חשים
בלוד
תרצ
##ft
לאזרח
העורר
איטי
ימיו
ולהס
שנתית
לירידה
בתמ
האפקט
הפיגוע
איכשהו
##פליקט
האורת
ובזה
לנחש
מתורג
מאגרי
##זינים
ומנסה
לסג
##עין
הפנט
עתיקה
לשיט
מתת
טכנולוגיים
רשאים
מהעבודה
ol
##zion
הפעיל
לנמל
עתיקים
מילר
##טינה
המוחלט
פסול
##זבאללה
החשד
אחותו
ויקטור
##ופתו
שנז
קוא
לבה
מהלי
הרגילה
שהפכו
בסוד
האיום
##יעתו
ומיו
הרוסים
גבעתיים
נתיבות
מעצבת
לבדיקה
##לחין
המוקדמות
המבוטח
ששל
אוחז
בהופעה
הבורסה
למדיניות
##iyya
פותחים
ברצוע
מחזה
עיצובים
הגנים
נישואים
ערובה
ערכת
ביהדות
##קסון
נבחרים
למשרה
yes
##בחור
ההתמודדות
שביעות
גולני
fun
יבואו
האופוזיציה
לניתוח
חא
טנקים
אלבר
תוצ
инжен
рамат
שמרו
##חיק
##200
מוטב
קיצוניים
מוגדרת
מאחד
##גמים
חופשת
מיון
בהב
וחוש
pers
הראיה
הורדה
מושך
משתתף
##ref
האדריכל
מגב
ראשונית
דיסני
שמשהו
ולתק
חוברות
הובא
להסתובב
להפריד
che
ערבות
ואכ
התשעים
ושמע
צבוע
##יתוי
ביי
בזב
##עקה
ואופ
חשוד
מפלגות
בודקים
כשהת
כלכליות
מפעילות
כתח
##ווכח
##צנו
גימ
קוגניט
##גום
ואחרות
לאתרים
phot
אוטובוסים
שייכות
מרות
##פיהם
מצוקה
בהא
לוקה
##ier
יני
##סיות
##רוסיה
ואלי
קיו
בצדק
נדירים
גביית
##ורין
צמי
##ное
##בטאת
יכלה
##פורמת
ראשל
גומ
נחלת
עושר
ערוצי
גלויות
המתרח
##own
##ары
בסטודיו
לאנגלית
פיגוע
##iness
משקיע
חריגה
להתבונן
נטילת
ורבי
שנמצאת
1946
זילנד
מושגים
##גנונות
פסיכולוגי
שברא
הקולות
##עזע
התצוגה
ספרה
##נתרופ
בתפריט
מפעילה
##נעת
באוז
ופעילות
##וכי
##צלם
העדות
מחיי
בחיינו
במדעי
1963
##יאור
השכנים
##ירוס
המצור
לזרוק
ובחו
כאדם
ועליו
עשית
רכה
מעבוד
בטעם
ונותן
img
##וממת
##ject
בקצרה
כתבת
בלייזר
לתוקף
מונעת
ועבר
1966
сп
ילך
נבנתה
חוברת
נטול
המזבח
המתחרים
שרירי
הסחר
להול
חוגים
לפקודת
##style
ששון
בלש
נוצרת
אבישי
ביצה
שהוס
בהל
וירקות
להינ
היומיום
האמיתיים
להרשות
הפרוייקט
בריטי
מצעים
החבילה
מתכוונת
עבה
##מעשה
ובנות
לתקרות
הוה
ונשא
המנהיג
עושות
השה
עליונה
תהי
קורבן
בהעדר
השלבים
יזמות
הנזקים
שורת
##ילמה
time
win
ספציפיים
מבטיחים
וביצוע
הגם
בפניכם
רוחות
1961
בנפש
יפעת
רונ
##ימוביץ
##רכזה
עזריאלי
הקלאסי
##סטגרם
ביטח
##קטיב
תדיר
עבורה
השוטר
הזרם
בתנור
כשזה
שטויות
צדדי
העצם
שגב
המפורסמים
שובר
לגידול
האנגלי
הינ
ליבה
חופי
שמלת
##ודדת
הפשוטה
המערכה
ויליאם
לשחקן
האסלאם
הגינה
##כינים
כוע
בהרי
מסופר
הדיר
אוטונו
השיחות
לעני
האזורים
אוכלוסיות
התפטר
##ילינג
ус
ביג
ולבצע
וכח
מזכירה
ומאפשרת
##יוטיקה
פורסמו
האירופית
המלי
חריגים
המטען
##лек
המימון
##וגעים
הפחתת
##רונו
ביצעו
משפיעים
תחתון
ההופעות
fe
אלהיך
מעמדה
נפגשו
כלול
##יטוב
בגבעתיים
360
כפת
רוסי
החיצונית
יתקיימו
נוזלים
##בריהם
כרוב
להקטין
האגף
ליפול
נראתה
בפניי
מבוקש
הינן
פרסומת
לשדר
פיננסי
מבטא
השותפים
הקבר
המעורבים
пет
לתכנית
שנותרו
שכולנו
אשתי
סינג
למרח
הטיל
ins
ומופ
שהתקיימה
תצהיר
הקימה
חשמלית
וסק
המדויק
##тро
מנהיגים
משלימה
indust
בפעולות
פרמטרים
החינוכית
אלחוטי
##בטלה
מכניסים
div
אדון
##כזב
לקלוט
##43
##פיינת
##phone
נעמה
נציגים
118
##פויים
תרח
##חקנים
לקחה
הדיגיטלי
למרחב
בפא
במסכת
dell
הקבצים
הדוקטור
ההנהגה
מסתכל
##change
##פגנה
##יתא
##כירו
מירושלים
והני
המביא
וכה
חוצה
ולנו
engineering
פלאפון
תרד
הריח
ינס
פנלים
##שוף
הסכמת
זמנו
מותגים
פריצה
מחוברים
יהב
החיה
האוסטר
##יכתו
לנפש
עליות
רבא
מכובד
שולי
אימוץ
הביז
במשרדי
דיברו
רשיון
פוסק
חוקיים
סיגל
בפיר
עוזרים
הקואליציה
מבצעת
המבצעים
לוז
חסרות
לצדדים
החזית
מיקומך
שעשוי
##ayin
לגילוי
##ריחה
המכריע
אמרי
גונ
##enn
הפעילים
ההתנהלות
שמשון
בהתפתחות
ביחסים
פיטורים
דרומה
גלוי
מאנשים
בטא
tw
reh
לקרא
שהפכה
##ולדו
כמנהל
בלע
##בץ
מתחרים
במונחים
לשח
מחליטים
הטיעון
הצמחים
סטארט
לבנו
##ih
החצ
תקנון
העלתה
לימור
למחיר
עיתונים
אינטלקט
מזמינה
בארבע
אצלה
היסודות
##וששות
נבון
##akim
ששימ
היהודיים
קלאב
בתפק
ком
וחיל
##ציו
מסובך
ההדרכה
למוצר
השביל
המאגר
##טריון
##иц
רצינו
תאור
213
משתלמת
והמד
העשייה
הזמין
הגולש
tal
והוס
מושק
לחייו
נחק
ויצירת
המתל
מורן
מדענים
חתימה
נדירה
התזונה
פוגש
אלבומים
הדמוקרטית
##טרפו
חופשיים
המפל
המפות
המהות
הדגש
הצצה
1938
השגת
##פדפן
ממשלתי
##בורי
ליישום
נשואה
משמעותיות
הפתוחה
קורן
פריקסט
המסי
מינימלי
בעריכת
גלריה
חתימת
##fix
מסרב
בדיוני
יורדת
למדע
בבנין
המקובלים
##ков
##ימציה
get
##רמיאל
מעבדות
בעם
##וטיים
נשארים
פגשתי
הגנו
לסיוע
הנהגת
בדלת
מערבי
שייק
פנימיות
מאלומיניום
השמיני
ובזמן
החלקה
מקביל
##ונכם
ומגוונים
העיקרון
##וערים
השיטות
מגדלים
##נבוים
לגופו
אברה
רוכשים
בבוא
טבעות
שהתרח
שרואים
שקוף
מחדל
##инг
תרם
עדותו
ואביזריה
הספירה
בקיר
ההמ
##יפולי
##נאט
המדד
אוזן
##its
##תהליך
מהנדסים
נעשים
מייצגת
##פוד
להתבצע
##41
שלפיה
גלובס
הנביאים
##נאם
לצערנו
חשק
מגמת
world
שנבחר
ולמנוע
##וטת
גש
הקלטה
##ובשים
המעלה
119
##аль
פרנסה
וגל
##oo
גוטמן
בעלים
לצעירים
ברורות
mach
משיק
##מייה
טח
##ישגים
הרושם
החלוץ
ובטון
מקרא
לרש
ונוס
בילדות
דבק
צרות
שקיפות
ואירועים
אלוני
בדוא
הפלמ
##זיליה
פלשתי
העשו
הריאלי
המהירות
מעידים
שטוחה
אופטימ
שהנת
לפינוי
איבר
לקיבוץ
##לטפורמה
ותס
מעלי
האיים
הכלכליים
נשות
##ux
תאוצה
הגילאים
##mer
קודמת
חבלה
גלבוע
##פוח
וארו
הפוכה
##רטן
קוז
##פורסם
איו
יצוין
חיוביות
דיווחו
הקשת
בתוכם
תובנות
השווה
##וקראינה
דיאלוג
הקשות
לפניך
ולמצוא
הרגלים
סרטו
cor
להקות
הולדתו
val
הנכונים
הסלולר
קייט
תלמידיו
מפחיד
איח
##ال
שקטה
שמנה
##נבי
מציינת
מחלק
הערבה
מצבם
חוזים
יורה
טבעון
להסדר
המשמשים
פרופילי
נצח
ציורי
צמר
שהמצ
ושלום
איטלקי
מחשש
נקייה
מפרס
##צני
ולהמשיך
בחיבור
להשכלה
התפרסם
מובילות
למועדון
במכרז
light
התאורה
##תות
ומדרגות
מאושרים
מהדורה
סומ
פותחת
##וקרים
לקורס
##uc
הפעילויות
נבל
##me
במוזיקה
ללוות
המן
חסרים
tiber
חגים
מונד
1920
מקסימה
##58
ומעל
1958
תצל
##ולמה
##לבש
ממוחשבת
פופולרי
##ניקו
fam
##46
האמין
צבר
התקצ
אריחי
גבינות
מצויינת
השישים
לשימור
חמורות
אפשריים
רוע
הצלחנו
משלהם
##לוואות
מהאוכל
הכריזה
##בנציונ
מאוכל
ששיח
qiryat
שהולך
ותת
המחשבות
קיצור
וטען
##סנים
משחר
עשייה
שמפ
##ייבות
חירות
בעמדת
והרח
##ari
השיפוט
##ינוביץ
קשורות
תיחום
הדס
התחדשות
שימשו
פיליפ
גורן
משיכה
משקפיים
nahariyya
##טלים
ומרת
שהנו
מבעד
נשארה
פסקה
##ומיין
הזוגיות
כוא
לרשימת
להיפרד
לשיתוף
##иква
הכיוון
בגבול
תרש
להתחשב
href
part
##וריד
יצירתו
עצמאיים
אוור
ברם
ההכשרה
הסיר
שנוצרו
סלקום
פיזור
חביבה
וינג
про
מביט
עבדתי
ibm
שכמו
השמו
##ירויות
האישור
פיני
your
רשע
מתגוררים
וניל
ליגה
להתעסק
לשיא
רבו
shemona
לקרן
names
ולהש
עומדות
220
הפתרונות
זמרת
עורר
רומניה
נוזל
בשירותי
בקש
פרנקל
הרפובליק
עוגה
הצלם
מפסיק
בהתב
העסקיים
הדיונים
הררי
##ניונים
מתקבל
לתרגם
סילבר
האקלים
מתוצרת
וודאי
למכון
ולהח
כיסא
ההמלצה
בבדיקה
במעגל
ביקשתי
הכספי
מיא
לשלול
רצפת
קסום
##גיח
##ומנט
התפריט
product
בצילום
חשוף
מטופל
אקדמיים
למוסדות
ממקורות
חומצות
העמקים
להרצ
וחבריו
נעצרו
בטענות
##100
לרבי
##ישתו
רגליו
איכותיות
שכרו
tiberias
טום
שהו
שיעשה
עיקרון
קורת
להכר
בשרי
בנשים
גיבורי
הגבוהות
יונ
ההמשך
פסיכולוגיה
מנדטים
тиква
בקידום
haayin
להדפיס
אידיאלי
רוש
תתח
שמשתמש
מפואר
ממשית
חמצן
טיל
##אנים
בסימ
התגים
בחמש
פשרות
כשבועיים
##נטור
##צנים
##וכרים
בלימודים
הפתעות
##וכד
nat
##נרים
##ובילה
המוצעים
להפגין
מהוות
ששני
סרג
ברבים
וחג
הצריכה
##ידס
ובראשם
מהותית
המבור
מכינה
בבג
1962
במחלות
באפריקה
דואג
##מטים
ישא
להכרה
##ата
קוסמט
הפיננסי
##שני
##יפוץ
ריי
בילי
מודלים
חבילה
חורבן
נפצעו
נחמה
##פרסו
במגרש
פוליטיקאים
לילדי
##יסריה
שבמסגרת
rab
קבועות
ירא
מחומרים
והלב
בבטן
כבדה
הידיעות
קילו
בנויה
הפוליטיים
טראומה
equip
big
##גידים
מתמקד
מרגשת
##ual
המכוניות
המתב
ליצירה
שקדים
חסון
להיפטר
##זהיר
שקיבלתי
הפיצויים
מעשר
החשודים
##פרע
נעלה
הרוחות
כובע
כשנ
החזיק
php
המהפ
אוטו
דיסקונט
מתקשים
קומפ
מאלו
וגדולים
בדוג
אלע
מציצה
בעלויות
מפורש
שראש
חייך
בדרכם
inform
בכתבי
דואגים
##תייע
קרבן
חשיפת
הגה
סיפוק
אפייה
##עילי
לשחזר
##ily
exchange
מלאכותית
המיוח
התפתח
דוברי
דומינ
האלים
רחבת
אסירים
היותה
פולימ
בניק
ונז
##מונאים
הסגל
הכדורסל
המולד
ארכיא
##יקן
מארצות
בספרים
חינוכ
##oss
האמינו
הבוט
##מלכה
נחשון
אשתקד
התקנים
הדלקת
יצטרכו
לגבע
ופרו
השתן
האולטימ
קניתי
##מניה
##לחות
סוללה
##ורק
##ממת
ret
משתר
ומשרד
הדולר
הפיקוד
מגיב
נעה
השלטונות
הפרקים
בספורט
להריון
במימון
בנוף
ומצליח
צפיפות
הציגו
בכדורגל
סטייל
מלוכל
מתמטיקה
בתלמוד
הסתכל
מטעמים
המורכבת
שנדרש
היוקרתי
למחלות
חוסי
זבולון
ההפרדה
לבסס
לחדור
להתחרות
##ep
שעלי
הניקיון
##ומפ
לערער
##אהבה
התגלו
יישובים
שהרב
לרוח
האקס
חוקרי
מעניינות
והפס
הסניף
השוקולד
הצפוי
מסתכלים
הסימנים
סכומים
הרוחנית
למדוד
מסננים
בשדרות
משלחת
בשח
כנען
הפרויקטים
פינס
הספציפי
##marker
אלתר
מחצבה
135
בטופס
שליד
##יפין
בבה
##יצא
ועסק
לתלמיד
יצירתי
התשתית
113
ובהן
##רבונט
ולר
במגדל
יתרת
##יונל
וראו
##la
פדר
תשוקה
גיורא
פועלי
בהדר
אישים
fil
ra
##ניסטי
מוגברת
נמנה
זהר
שזכתה
a4
##דנאות
בער
מודיע
עתיקות
##קוין
לנתח
##רטור
שקיימת
לריצוף
לעבד
בתיאום
themarker
כרמי
למשתמשים
החקלא
##גא
השמר
מפלי
במיטה
רנט
##לבת
##יקליים
שאיש
חומוס
##פתיים
מהמא
חולצה
רגוע
לחוב
הידר
נקבל
אמהות
פסיכיאטר
##ital
סופו
מברך
הזולת
##דורים
##יקוח
רואי
לינק
שמם
לפצות
##ника
הרמות
##רסאות
vide
גיליון
מטי
##ורייתא
##גדת
##יגל
נכנסתי
##בתם
הווי
הסינגל
השחקנית
במחירי
תערובות
חרות
ולגרום
המהירה
##ds
##itch
חגיגות
לאיבוד
בחרנו
mac
systems
הישגים
##тер
##итель
בטקסט
##נגוף
שיני
איוב
וכות
בדבריו
##אנס
##גורית
##יקרה
1955
אולימ
ויהיו
##נוחה
כתובה
הוצג
העקרונות
##רגול
להיזהר
##יבלים
כלליים
נקל
והבר
שהוציא
תעבורה
מיותרים
נאום
סמדר
הנוסח
המונית
##פוק
עבאס
לכוחות
mat
##בעל
המשלחת
##דיחה
מתעל
club
הנהיגה
##יטוט
ברצועת
מקפידים
הרמת
פרוטוקול
הבשורה
ואשתו
הגירושין
לדף
הקלדה
למעבר
מאתר
גדרה
holon
הנמוכה
שיעזרו
equipment
לטפס
לגשר
בחייה
##ועידה
ofakim
black
prefix
פקד
##מדי
namespace
מקסימום
##וביה
לחשבון
מהלכים
מכרז
ביצירה
pdf
1951
שנגרמו
לאורחים
##ופסאות
אחזקות
להיט
התפתחה
אלמוג
בהווה
שתל
##כירים
אריזות
בטכניון
power
בוה
החנויות
אנאלי
יקיר
ре
התבוננות
##ומטית
נשלחו
ידיד
מתכנן
מפתחות
##ופשת
##חדו
התכוון
ומים
ריסוס
מקסיקו
דרק
פורסמה
קריטי
מגניב
לתפקד
מרשם
שבוצעו
שהרבה
##רמונית
החמים
בפרסום
shemesh
##אלון
שנכתבו
בונ
לפגישה
##אבון
והלי
הכחול
הפועלת
הצטרפה
האימונים
ובגלל
כנסים
בקרן
בינוי
שלכ
ורדים
מניית
מתבקש
קאסם
מקיימים
התקשרו
בפניהם
הקדש
עגול
טונר
קלינטון
##פינות
חילוני
##מישי
עברנו
אוסלו
והמט
face
##ода
הנבחר
וחוץ
אלקטרונית
אפק
תחקיר
טעימות
ירידת
jew
גמליאל
##לקל
##маци
הנחש
שדרוג
נפלאים
למוז
כפית
##ילוק
לצרוך
שנחש
הבור
ההרגשה
המחול
יאנג
לייעוץ
המחקרים
למפגש
השומרון
##סקופ
ביתנו
נאמנה
מרצון
ein
הזמרת
פנאי
סולו
האפשרי
ביצעה
1953
לטקסט
חשופים
העונשין
מסעות
מכוסה
##כניסה
access
##ליסט
שחזר
להתפשר
במתכונת
תבע
ולהג
##אגו
##יטד
יול
מובטחת
450
אוף
הנורא
לכלא
##ריכו
והיתה
המקצועיות
schem
##ינתיים
ולבדוק
באוטובוס
הוצגו
להגביל
##פגני
תשא
המעשים
סתיו
כשכל
##דוף
טכנאים
גופה
במשחקים
##ופור
לעזרת
הישראליות
ארגנטינה
פלטפורמה
תיאום
סוכות
שהילדים
לקפוץ
מותה
ההוראות
הגבלת
בביק
##יקלופדיה
התשתיות
תני
צחי
תכנ
עצר
למחצה
ארל
השותפות
##מליים
רענן
תיכוני
פיקס
טלוויז
יבין
החקיקה
משעמם
הנוגעות
##נגנון
לשיחה
פיתח
לרבים
לאירופה
נלחם
משולבת
מפתחים
ציפי
##וכנה
וקונס
##cc
##יפייה
הספרדים
ולדעת
##מרון
המטוסים
המייל
דימ
אורנה
##פואת
תרבויות
קצינים
##را
הפשע
לצו
1954
בעז
##כמי
145
לעבודת
שהתי
ציפורים
ושח
הטכנולוגי
בובות
גוז
ומשה
129
הסברה
שמשק
##צלן
##uch
בעבירה
משאיר
החבורה
##יסקי
ויקיפדיה
התגור
##נזה
יקום
הקומוניסטית
ומני
לרקוד
בתהליכי
להערכת
הפרשי
במכונית
ויעיל
##יטקטורה
שכנראה
מסט
הסמוכה
לגבולות
##סיסי
עיקריות
להתנהל
מנוס
לטעום
השבטים
דכ
המגדל
##ean
חוגגים
יורדים
האגם
##טבר
##וממות
##br
##רחו
בדעת
האימה
ובניו
הגילוי
הקפיטלי
петах
שניתנו
מפלסטיק
אבוד
מוגבלויות
##кс
149
כשלא
עסקיות
lezion
דותן
##פטי
ממכללת
חדד
שואלת
להרחיק
לבתים
ברקת
לדרום
סויה
הדיסק
וחסר
כלכל
עסוקים
להיכ
ובמידה
התהליכים
ומשו
הוריה
אגרס
למנכ
הקיס
מילואים
##מלך
המעט
##te
מתנגדים
רישוי
שמיים
שיווי
ארמ
המשוב
לתינוקות
המאוחדת
##נגן
ענבר
מונחים
ממדי
תלמי
##קני
הוגשו
לחסל
1959
נישא
גרשון
טיט
בדרישות
הפרש
פטירתו
בארצ
מועיל
##ovot
לבנייה
מוכשר
ואמרתי
לחט
וסב
והתר
נוגעת
לידיו
ריפוד
הסמים
נתקלים
תענוג
כשעה
ברצף
##כט
לשאלת
פרל
מולט
כמפורט
ספס
הדוח
המדעי
שראינו
הישרדות
וחברת
ונגד
שהעולם
טנ
##ידושים
sho
בלימודי
היוזמה
##יאר
ולמח
sur
לבדה
פלסטינית
ובמהלך
קונספט
ארתור
##סול
ולאור
111
העולמות
התייצ
האלוף
החובות
לחזות
האושר
לאול
עינת
משפטיות
מאבד
urn
1952
למשא
##עדית
קלט
עבדים
העוצמה
שלפנינו
##ож
פונקציונ
ההרשמה
סרח
175
זמיר
מתפקידו
business
##vc
חקירת
התבט
ברומא
בחוג
המעצר
הבלעדי
דימוי
נימ
##כרנו
הפסיק
מיועדים
מזוהה
חומות
והילדים
נכש
##יקרבונט
##יאנו
מהרצ
הפרעת
למרג
גליק
לשעות
וכע
משמרת
##фар
הנערים
הדתות
כרצ
##ניש
ובמחירים
##ren
בשא
שוות
ניקול
מזכירות
schemas
בשדות
בנשק
לאוניברסיטת
מהמדינה
הוכחות
המשפחת
וכיבוי
ממשלתית
мет
ההגעה
ברכישת
רטוב
1933
הנפוץ
##ave
קניה
שראו
שהחלה
בפניה
מחט
תרגילים
בתנועת
הרצועה
חשף
גרפ
הגדה
ולהתחיל
וקבלת
ган
לבכות
שכיום
##ובייקטים
לפסוק
המזו
המזונות
לכפות
וזמן
מנעול
##כשים
במינו
כשמת
האבול
ברל
##ium
ושכ
הבעלות
בשמות
האוז
התחשבות
##ран
מסחרית
סנ
מושל
דנקנר
ואר
מגוונת
נעלמו
מוזיקלי
האלהים
אותות
לתחרות
מדהימות
הרפתקאות
צפה
מעסיקים
מוטל
מונית
הענף
הכתובה
בכב
דיסקים
במסמך
אגפים
אוניות
יומיומי
##רקו
חתמו
העתיקות
הלאום
הארון
ונמ
שלחה
הצהיר
content
רבינוביץ
אלול
הכשר
אלברט
אדוארד
קדי
a2
dur
##ועית
ציונים
רובי
מקוון
הטלת
מפורסמים
להתנגד
כדברי
אברמ
נקט
כספיים
החומה
##оч
ועור
המחוקק
ביתם
משנים
הקלטת
בחשיבות
והחש
ההורה
ירושה
הראיון
מסוגו
риш
להתנסות
וסביב
##го
אוסטריה
פסטה
כפיים
ימצאו
לשיטת
הציונים
מקומם
לכול
להתנהג
ובריאות
##בונות
ממתן
אביטל
ויאגרה
דרא
דון
שמנסה
מסתיים
ועש
להדליק
מגולוון
##ישל
יריב
זיון
הגביע
המפקד
בתקנון
עכברים
הפוסקים
קיומם
מיליונים
מילת
##לביה
קיט
מאותם
ההשלכות
יהונתן
##סתם
עירון
תומאס
##yl
המפורט
פרוייקטים
קרל
אכיפה
צירוף
שעוסק
שטיינ
##עיר
השאיר
שבעולם
##ובס
המכרז
רוחו
גברת
להקה
מהגרים
בוושינגטון
##בינות
רלוונטית
אקספרס
רשמיים
אקז
נאלצים
##ize
היסודי
כאיש
עייפות
סייע
מבת
תנור
הסיכונים
לכה
עמוקים
האצבע
היפות
התקבלו
##פירות
בבלי
שייש
פרישה
240
##bl
לחלופין
כיפת
##אוט
ged
##ef
##רבל
פסנתר
הכרטיסים
הקורסים
וועדת
לאסור
ונעימה
שיחקה
סינון
מהאנשים
##וחן
בתפקידו
המני
שנועדה
במשרה
ולקחת
כמצ
##ובשת
עלית
להעיר
הקרבות
מברזל
ראם
בתבנית
לכלכלה
שכח
המידות
האנדר
מגמות
מאורגן
להיסטוריה
בראשה
הידרא
במחשבה
179
והביט
מתוכנן
לפארק
השרות
##פסי
##ריסה
רופאי
פרקי
##לפו
התבנית
##נבאום
##מושת
##рат
ייג
כאחת
התחנות
להלכה
##yc
וטבע
שאמרתי
בכמויות
גרר
קינן
##נדית
טייס
הקמתה
המקביל
תרפ
ועק
בגילאי
רגישים
##орт
יוחאי
להכריז
משמעת
רצפה
גרינברג
יחול
בנפח
הצטרפות
הציפיות
ברוכים
##ויב
פמיני
העיתונים
לאוה
רציף
לפט
להיעשות
אימי
לערוץ
##כימו
הפרישה
מגוח
##רכוש
מומלצת
##דרלה
נהגים
אגודה
בנתיב
למטרת
ובמקרים
רוויה
לאחוז
המדעית
הסחורה
יכלול
שוחרר
מחברים
מעשרות
##צד
הבאת
##tr
וירא
השחורה
שרג
גישור
##סאי
תזמורת
המגזין
##ולטור
מלאת
בחדרים
זורם
הרגלי
ועלי
אוקראינה
##רבעת
לצילום
מרוו
לסיור
מוריס
להפתיע
קוצ
אודי
לצבור
##גוררת
דרכון
אמרנו
adv
כינוי
המורדים
שממ
##וכח
הפערים
rehovot
פנקס
סיכויי
מוסקבה
בהלכה
##ריג
גרעי
שמעבר
שילוט
ליצמן
displaystyle
תיווך
במסגרות
נתקלתי
מרהיבים
##ции
שטראוס
התנדבות
התאריך
זוגו
מקומה
פטנטים
המינית
בארון
נצר
תודעה
נסח
112
יקרות
לשיקום
באגף
##ורב
מריח
בשיחות
במשחקי
מיומן
שתיהן
##צלו
##יבק
במקרר
גרפיקה
החינוכי
חמץ
פועלות
נגרר
דונלד
הסגנית
סגולה
ניצולי
המיועדת
ובעזרת
has
מוסך
פקודה
ברגעים
סופה
מאדם
##ציף
האהובה
יצרנית
ילדיה
ושמחה
לשמח
סיט
##ונגריה
וייעוץ
הירוקים
##מבל
לשוחח
לנשום
ומנוסה
סערה
בשלבי
##ורתו
שזאת
מעבירה
בגוון
וחומר
כסאות
האדומים
הקליטה
בהיעדר
וקבלו
ציבוריות
לגמר
כימי
לאומיות
צורף
באלה
הרגש
להשמיד
מתקרב
נרחבים
מרום
הטעות
הצוואה
תמים
פתוחות
וחברי
כרוכה
אופנועים
שבמקום
מסים
בשט
ניצל
הכוללות
וייצ
יוה
ורוצה
##ראיות
אונים
בהתנהגות
ישנות
בתפקוד
##ript
אוסקר
ונסון
קיצונית
להפסיד
ניט
ריס
וערב
האינס
חיוניים
התרומה
ומבלי
דתיות
hah
צמודה
מוה
שיוצא
להליך
ולפת
מותק
מערערים
בואי
1957
##פולי
התראה
ודבר
הגלישה
מודים
פערים
ביתן
התקשרות
##ניינת
שבאמצעות
גידור
הביוב
לכמות
האסטר
##ייטק
היווני
##pa
שהקים
ברצוני
ומעט
מרגלית
קיימא
האויר
נפגעו
נשכחת
לטענתה
לישיבה
ואיזה
המאמצים
מישל
נגע
לסמן
בשואה
לגודל
אוקס
בפסוק
לברכה
הימנית
והיר
שכולו
ришон
שפורסמו
##גשו
נתיבי
לחיילים
ונכון
שיגיע
##דניות
פסיכולוגית
##וויזיון
ולצאת
הוותיקים
ועבור
הריגתם
תגיד
הקדמי
##מיום
מודרניים
המנהג
משולש
הנערה
עניים
עופות
arch
פרנסיסקו
הדומה
שהמס
וחמש
יעברו
ליישוב
הנתון
בטיסה
בחלקים
באיראן
##צהרה
##ekh
העורך
##מיס
הדא
##גרפי
לבניינים
בעפולה
היבט
כהנא
לאר
##ונדים
מרקם
ולהשת
יעדי
התקלות
צפויות
מבוססים
שוכנת
חולשה
תירס
מנועים
שעסק
חלבונים
שיאפשרו
אמרת
משתלמים
מוכנות
הגלות
הטרדה
תשלומי
בשבילו
העומדת
נעימים
smart
מרשימים
a7
##באר
טייל
סלילת
יצירתית
הסעיף
מתחייב
117
צפיות
אינטל
הסכמים
דרשו
האתגרים
קדושים
שזכו
link
השקיעה
##וטנציאלי
דורי
משדר
האפיפיור
העלמין
##אריים
הדשא
השמאלית
real
המושבים
באלימות
רחוקות
הרלוונטי
##by
שהוגש
##שתים
סיון
רכבי
מקורו
מבוססות
אטל
##יידי
תדע
המפגינים
תקינות
בודה
מישור
ניתנו
הניתנים
ומקום
הנוסף
ההמלצות
נושאת
טירת
##ולוצ
##רכיון
לזכרו
מפרק
נקבה
מצוינים
מפתיעה
החתול
##אלוג
רשומה
ולומר
##ירס
управ
##ענים
##גידי
הרעב
מלים
עזים
מקדי
והנת
ההליכה
המונים
בגדה
fire
נדבר
זיקה
קניין
##ובילים
##oms
ריפודים
מהימ
בדגש
ממשלות
שליליות
בנקודות
מתאפשר
הקונצ
165
מפגינים
##צינה
וחבל
צייר
תשי
ועניין
##ars
אבד
פרקליטות
##וטלנד
וטי
##ication
הפקודה
פורטוגל
##נהו
##צועיות
החקלאי
##דידות
אתנו
##way
##כשיטים
שקדמו
וקס
למקס
בשפע
בדרגת
הירי
מחליף
ברד
המגע
ומשום
seo
שמטרתה
גלידה
זרועות
לתעשייה
וככה
ושוק
וקטנים
ir
נפסק
נמי
לאלת
מעטפת
מברי
הנוצרית
העוני
זכרונות
##נני
להו
בעומק
נקראים
##יזום
הסתדרות
מחלקים
סמסטר
##בדקו
בנאי
בינלאומיות
לביסוס
המרג
ברצח
לארח
טובי
ההוכחה
בקובץ
קסון
נוסד
וליווי
מעוז
הסופרים
יערים
נרת
סוגיית
לשט
נרצח
יגר
##ינל
שומנים
והולך
מיהו
ותכנון
תחתית
הציבוריים
וואו
מסרה
בכתיבה
משוכנע
יית
אומות
סנו
הפוליטיקה
העתירה
הבודה
הדירוג
דיווחה
המשפחתית
##לאמי
הציר
דז
##רכבת
למוסיקה
יצוק
מקבלי
מכרי
לתקשר
ושמו
סגורים
וראיתי
פסגות
##ush
במיש
##ict
שושן
##ימוץ
השקיה
לאבי
יוקרתיים
המנצ
##רוז
הנעשה
בעניינו
האלוהים
השאירו
ההרצאה
##וותה
sa
הנצרות
##ike
רטיבות
ערפאת
הטמפרטורה
אורטופ
הקדומה
לקביעת
נכלל
מתגורר
רגילות
##box
גלות
נורה
לארגונים
קומוני
בביטוח
person
ולהז
רוחניות
חיטה
גלילי
information
פטנט
העותרת
קבלני
mas
מוכרות
הרפואיים
שהגישה
לפעם
ורואה
בנהריה
קטנט
קובעים
קשיי
הטיסות
מהנדסי
מהתקופה
לגבש
##ופסא
##נהגת
לכתבה
דרגת
רומי
נבחרה
נוהל
בעודו
עקבות
155
ant
בתאונה
תומכי
מנהליים
שכש
להבנה
תבל
##נקר
אקלים
נרג
הרבנית
תתא
קרע
השתלמות
ידיעת
##פגעי
יגידו
שאס
##יאנית
העמידה
בחורים
הסעיפים
הנכונות
והשלי
בסכנה
שרית
האמבטיה
יועצים
מפורטת
בוי
כהלכה
##ype
ייעודי
כלכלת
המחבלים
מתמ
בפוליטיקה
##מצאה
##יקוד
נורמלי
בוכה
השבט
במסגרתה
תם
מעלית
מתושבי
ויוצא
בפרטים
נדע
שטרית
המסעדות
הקבועים
משימוש
מתוכן
משולבים
המאמרים
הנסיעות
מעצמ
נשמר
מלג
116
כחברה
הצהרת
##вен
opt
המשמעותי
וירוס
להתאמן
##מפרטורת
red
החוזים
##פרופ
##גבש
מייצגים
הקטל
a1
אקרי
hay
עדכונים
לצרפת
pp
ריאל
הביטחוני
конс
cal
מארה
הנגיד
ברובע
באזורי
##פיפות
אושרה
הבשן
##מידת
תרנג
u05ea
##ותל
הרעה
industri
##וגעת
מקצה
לשמה
9d
הכנרת
שלטונו
הפסדים
תפקידם
עימה
##וסטים
הרץ
סרו
ביחידה
נשית
למוקד
לידיעת
האיראני
בבלוקי
משלימים
##ימד
וברי
הצפייה
לסעיף
##ان
לניו
לגיטימי
בקניון
ההתבגרות
dan
יתחיל
יעילים
במפ
וכלים
הזכוכית
כחוק
במזומן
act
хол
הקופה
הצפה
בלונדי
ארוכת
##נעה
פיננסיים
בפעולה
hotel
##מנטי
במקצת
לנקודת
gedera
הפנס
ונוער
איה
שכם
בחוש
ביישום
השמירה
למרפ
נפטרה
##יבוצים
באכ
הריסות
##גיל
כלפיו
לחוסר
##ונין
lab
##יביה
המחי
##וכס
##שביל
המחבל
בנית
גאווה
##ותרים
מחסן
וילד
פגיעות
יפנית
בקרבות
שפעם
##סטור
אירלנד
אפקטיבי
sel
ונכנס
מבעיות
בהנחיית
ובניה
ומכירת
בשנית
bro
מצופה
תורמת
יצירתיים
שנרכ
מולק
תפקידי
הכלא
ויוצרים
פרצ
##есс
להרכיב
##יעזר
тех
להכשיר
שליו
היישובים
##ino
##ומש
##ins
סומך
האוקיינוס
לאופן
התעללות
##צנת
reg
להרגיע
טמון
ספונט
##eng
##יגול
הראשיים
הממסד
בשיווק
שאליה
ותיעול
##גדול
הסדנה
עתידים
yam
##ברגר
super
להשלמת
בגור
##פרין
אצלכם
הזרוע
סרק
סוציאלית
בחן
##כביש
נרצחו
דס
מיותרת
שמנו
הזרע
הלומדים
נגזר
מוכח
ולהשתמש
בתוכניות
ולבנות
השביעית
תתב
לעץ
##דקנות
##שתתפו
##נזר
גרפים
מפתי
114
חתום
##be
pal
חיזבאללה
לשווק
לתס
עדשים
##יטואציות
##זבו
הסטט
שמאפשרת
אדלר
בודאי
נפגעי
בחיוך
למשפטים
אילנה
аш
הפסידה
דפוסי
טוו
##ikh
ודו
חצות
מדווחים
הנבד
ומוסדות
חומרה
אדריכל
לבחינת
מערי
בהמה
שבות
גלעדי
נחשפו
אירו
בטורניר
יינתן
נדחה
איג
##רוניקה
##לקוח
גיט
אחותי
##ouse
מוניות
שמעוניין
הבימה
שנמצאו
ref
מצריך
ההגירה
להסתמך
רדיק
המשימות
המעוד
אספר
מניחה
עימם
חבורה
בכירי
ורבורג
##למידים
קשישים
בהתייחס
הנוכחות
עוקבים
המשול
כללו
בגמרא
הצבעה
##פעלות
ליהדות
לפטור
אגוזים
העלויות
##לקום
מולדת
##שג
חיבר
ונפש
טיהור
חכמת
##קדוק
##חלטתי
לסרב
יצורים
חבריה
חדירה
זכאית
להימלט
דיברנו
cook
התרחשה
העיצ
העזרה
העבירות
שפרסם
##бот
הסטודיו
לשיעור
##לישה
##ימדיה
הנקראת
סלארי
הדקה
ומשחק
vis
##קדמה
משורר
בחלב
ההפך
וגברים
קדושת
מנוי
שתן
אגדה
לנתיב
##זקו
המתע
hdpe
יחזרו
ובמשך
להחל
לפספס
שהוח
לכרם
מזרחה
יפע
נטר
בתס
מסמל
кфар
עוגני
ובאמצעות
ולהכ
השלם
הוטל
מזור
החיפ
##יליון
תחזית
prof
שייע
השנתית
למורים
intern
ביתה
ידידי
לבחירות
התיישבות
אורכו
הצמדה
נפלאות
אפליה
##עיל
הסכימה
זוגה
לאמת
הפיג
במכללת
ביקוש
האצבעות
הסלון
ורמת
##נוביץ
נשארת
##ילדה
גרירה
אנגלי
המדר
##ארת
##יכרונות
היישר
קטיף
פרוט
ומוליכים
זרח
##אליזם
free
המיעוט
החודשי
הבוס
שצריכים
שחיתות
גלוטן
קלינית
לעובדי
משלוחים
##ענת
לשימו
##פאדה
תול
המהווים
##טייד
##שפוז
##וקוס
מולו
##ומצה
השתלת
##מונ
##tern
מהציבור
ליפשיץ
ילמדו
עמותה
מינויו
##פוטרופוס
##וצו
ליז
##ivers
מפיו
בציר
מופיעות
מחמאות
תוויות
הערר
##וגש
לכיתה
ארנון
ההשתתפות
הצר
לשהות
ספריו
הכינוי
מרכיבי
יוו
ידידיה
שחת
ותחת
תהילים
ייקח
כוונתו
יחולו
##קייה
##ham
הנגר
לתגובות
##סלר
ומגוונות
לפניי
ומפרידי
ופט
aut
ירמיהו
שכללה
המלונות
##פקטיבה
באיחור
לתושבים
בנם
צוין
##גבר
המדהימה
##ми
הבגרות
נפול
אטום
הבסיסיים
המשלבת
כותרות
סאן
לביק
השלושים
הטכנולוגית
איק
משאית
משלבת
מפרסם
חיכ
המנצח
rem
ממערב
בשולי
ובמסגרת
##ott
##edia
שחלקם
לשבח
באוסטרליה
תרמו
שעשתה
בכתיבת
זן
וייש
##אא
לשפה
##סטין
כרב
הביצועים
הרובע
כנפי
האלופות
##קולטה
consult
מעודד
מחויבים
אשפוז
תינתן
הזדהות
מעוצבת
במהלכו
בטירוף
שעור
המוצע
עותק
בשלטון
בבעלי
המשותפים
האיטלקית
נהנית
##ост
הירושה
בהיבט
וכדאי
כבדות
העלים
אוח
u05de
למינהל
##שונו
פרדי
מלשון
##זורי
##com
במקורות
##urn
מראשי
מפוצ
ידנית
כימיקלים
ייכנס
##שיא
תחפ
טבח
הרגילים
פרסומים
הנציב
##מינית
מדיטציה
בתחנה
חרס
הצמוד
##נכים
קומיקס
מדעיים
החסד
גאים
מזיק
רזי
##ובין
שעוברים
##ובהר
מזהים
החתן
רצועות
והדי
ומציע
הניצ
וייט
##ав
העימות
מפצ
כמב
נמנים
בעץ
במאגר
מסייעים
תוספי
שמאחורי
ללילה
הגורל
##גוריתם
להצדיק
למבוא
התבס
שהילד
מהרי
ניז
בקנדה
לחצים
לקוחותינו
חסינות
לאלתר
tv
דיזל
##ols
פלסטיים
באין
שפחות
ויצר
השאיפה
ליהוה
##יבר
בטה
ובבית
וירטואלית
קווין
החוט
קשק
אלוקים
ממז
ופעם
למוסד
לחתוך
marketing
##ליאמס
לצפון
האמורה
ופירות
תפוחים
והברי
השתנו
##°c
רף
בשכונות
ריבא
אללה
שהביאה
הוויר
ספרדית
נפוצים
בתחבורה
##רכיבים
ממתכת
high
והמג
שאיפ
instit
זקנים
משער
##פלו
והבט
ומקל
שכדי
להשמיע
הפוליסה
מכניס
לרכז
בדרישה
##דהים
הגבעה
וחיים
##נקן
וכסף
הרעש
חגיגי
הרגעים
הבטחת
בציור
ויטמינים
ודם
לגיוס
פעמית
בודדות
באנו
מתבטא
views
האסת
ותקשורת
##נהגויות
כוז
התכוו
לספורט
##ating
מצוינות
ברקוביץ
##arden
מתיחת
ממצאי
##נדסת
במשנה
##מיא
והיצ
תפילות
ורוצים
##ולחנות
##ביצוע
האוו
והלאה
ועבד
דגמי
1935
וורדפרס
הסבל
סקוט
ואמנם
##торы
##לקוחות
רפואת
אופרה
סוחר
היצירות
לנקודה
הנוספים
המילי
איבדה
ששמעתי
קליני
גיסא
ויני
שנפל
קולי
ממערכת
אירע
מדויקים
תוכנן
מוקדי
##איון
מוריד
מכתבי
העשוי
שוחר
בעליל
##ופסה
הירקון
המבוססים
בהיכל
מלאו
ומוז
אופני
ברסלב
291
שמתע
##טארט
пер
str
ובניית
750
שמחז
הרצויה
תט
המקוריים
מותאמת
dna
הצפנה
mi
והאי
לשיווק
מדף
כיפה
האומנות
בסקר
בטרור
בתדירות
שבבי
שתיקה
מעצמו
רוצות
ss
##ריהוט
קבוצתי
לחלץ
מותאמים
##aut
צבעונית
נגלה
לפחד
מודרך
כשרה
210
סחורה
בהגנה
ובזכות
היזם
באיט
ששלח
להתגונן
במוצרים
מעצרו
ברצון
חיוביים
שבעצם
##יהיה
בארגונים
ההכנות
##קתי
##נסט
ליחס
שייט
להסרת
שתס
nbs
##ממים
##oll
גייס
##ינום
תגרום
שילה
חטיבה
העורף
היגיון
kn
וקרי
בקהל
ולחזור
נפילת
לשמאל
##83
בהט
התעורר
הפילוסופיה
חשבנו
להביט
בחדשות
לדוד
##חבת
בביקור
שתאפשר
המשרדים
לחצות
חרד
ההצעות
מכפי
להחמיר
##ורוב
##וגרפית
אסטרטגית
בפינה
##דריכלות
##יביוטיקה
דחיית
שניס
קלע
##לבה
מיוצ
הפשרה
לאירוח
צאן
מאפיין
יות
פילוסופיה
לידו
רזה
מעטפות
שוליים
וחק
במסיבת
השיקום
המציג
ויקטוריה
ויאמרו
הקונה
אגוז
##פורטו
תרומת
##ונייה
העשירים
החלטתו
##גלת
המניה
##арк
לאלבום
הטוענים
הטופס
מפנקת
##פתיה
עילת
להתכונן
בגיר
לקצה
##ности
##וססת
לגורמים
סיעוד
בבריאות
מזבח
שורק
צנוע
המעגל
היעדים
עיניה
פונקציה
תכל
היפני
הבעי
##נדרט
תופסים
##פרון
שולחים
היווצרות
בריחה
בידינו
ההתקפה
##קוס
לאין
העוק
בלומ
מבוטל
פניהם
בקמפיין
מאושרת
שמייצ
tar
יסודית
ברבע
##יאנה
למאה
בלילות
הישנים
אקשן
משאיות
אחותה
לשרי
##קיימים
du
לאיתור
חורון
word
צלמים
נעימות
האוהדים
שריפה
##יקאית
אלטרנטיבה
לתצ
הקטין
רוכב
##עית
שלמ
העכבר
לפוסט
מוחי
בשווקים
עמדתו
קוקה
הביצים
איברים
הדיווחים
##נוא
למיטב
הכא
הדח
בסוגיות
תהפוך
ובהת
##оги
למפקד
הפניה
giv
הדוד
לגביו
##ופפים
ופסיכ
לקיחת
קרס
##כתיים
התוספת
שיום
##mb
הצביעו
נענה
האכיפה
הועד
פוטין
שירותו
בינם
במשימה
למלחמת
מאנגלית
העצמה
יידע
##וקחים
אינכם
והגנה
לנוס
##קעו
מדוייק
sn
למימון
##уз
שיתופית
דמותה
רלב
מעו
משופ
שכתבו
במצעד
שאוהבים
בשרון
ביחסי
המקל
לרכישה
##que
##בקשה
ממשלתיים
רשומים
להתרחק
המוסלמי
למגזר
רלוונטיות
התת
לארג
##וניס
נשי
למכשיר
השיעורים
סבון
דרמטית
##והבת
יופיע
למינוי
ולבחור
water
מתמודד
##ודרות
מתנג
ירגיש
ותצ
הפתח
צפונית
לייחס
##ופאית
exc
במרי
ולמי
ולשם
שכיב
##לבים
הרגשי
כשני
גריל
ונעשה
שהקב
מגילת
ולהעביר
##בעיה
מטומט
##ירותיו
ושלושה
העבירו
##וגלים
##יתרון
ואמנות
ההמונים
חרוד
לאילת
גישות
##פיון
וישב
במקרא
המכילים
פיצויי
בחינות
הטעמים
לעולמו
האסון
הצלחות
עמותות
##ои
שלפעמים
ננסה
לערבים
הגודל
שממנה
אוהל
תחרויות
מציעות
##מוכות
בניהם
ספירת
שבעבר
נרחבת
##מירה
בפת
חלשה
life
שחרורו
שרצה
אלישע
שהצליח
התרבותי
עטיפת
התנסות
##ימפריה
נדבך
יפני
##раф
מצטרפים
לוע
האסירים
דיזנגוף
##קויים
ההיריון
קומדיה
גזים
##וזיס
השערים
אאוט
מקלחת
אנרגיות
סוללות
family
בשלושת
##קאי
לקורא
שמועות
הירקות
החילוני
חידושים
##וטיות
##וגג
לשפוט
הפנייה
לצחוק
השכונות
בהצגה
לול
לצי
לגבול
שישנם
שעמדו
קפטן
##יזרים
וטובים
מפורשת
##טרקום
##פגניסטן
סכנת
חוקיות
קסט
יצליחו
נבחרו
##ار
לביה
וינט
לשיער
במלואו
##כומים
הגירוש
שמותר
שפל
הסלע
והוד
שהרג
היהודיות
טחינה
הכיס
##ינטרנט
השומ
מקצ
משכנתאות
##לילות
היצע
ואופן
##וונתו
3000
עמוקות
בגודלה
המלה
בדירוג
nbsp
לברית
נפשם
נצטרך
השכינה
ישעיה
לטענות
ולרוב
פוריות
1937
פטרוזיליה
נגדם
חלף
ידידותי
мод
ברמ
דרומית
פסיכולוג
מבעוד
השלים
יישומים
פוז
מסכם
לבטח
הכלבים
במתמטיקה
פצועים
אביבי
מצר
ושיפור
המפקח
##לטי
##פודים
משפר
וולף
המנע
1929
תרע
תשכחו
בביטחון
##יעל
##ונוס
הנפגע
שאריות
ביטויים
gmail
nba
שיכולות
##86
מייב
הפועלות
לרצח
נחיתה
הציעו
ראיית
מעדיפה
##מולים
##צלחות
שותפה
בקוטר
##סקס
דברו
רכשו
אוצרות
##לונית
יהוד
הובאו
במכירות
מפשע
##sm
##их
השיקולים
בתקנות
לעי
##גרד
מתקבלת
##ayim
צורים
##טריה
לבסיס
נינו
הרווחים
החזיר
##וגנים
##בלבל
תצטרך
וחוזר
באוכלוסייה
##96
לאולם
מאיים
כפוף
במילוי
ענפי
בסניף
המתנדבים
ברוטב
##ריש
לצמוח
##ובבת
שטוב
להמח
ומהנה
שהוגשו
לאביו
יקרא
פיבר
תוכלי
בכוונת
באביב
123
לתוצאה
זכיתי
בהוראת
צלילה
התמקד
ולשפר
אמריקני
תצה
משמרות
שמוע
נגן
הכתר
ארגונית
##ments
סטיבן
והפכה
אחוזת
המתאימות
##לבו
פסיפס
מכריע
פסוקים
##תימת
##גולה
ניווט
זמננו
סוכני
הבלעדית
המגוון
שגרתי
##וסטריה
מפעילים
בחבל
וייתכן
היקרים
מקוריות
הומוסקס
אילון
והוצ
ממצב
המינוי
החפצים
המאוחד
##uv
מהאתר
מלצר
בידע
נגיעה
טמא
הרשע
לווי
הנהגים
##ימורים
הכיתה
סולם
קפוא
##ונל
התובענה
enter
סיגריות
מאג
לבזבז
לחופש
הגויים
dvd
כינו
קופר
##פטר
hat
גזית
תשב
מופעים
הצהרה
אינדי
שימושים
green
להיק
אפיק
נפוצות
כוחם
דהן
פיתרון
הממשלתית
##רחורת
מכב
בוור
##pp
##נהלו
והרע
לגולשים
##ואיט
ציונית
בקומ
נערכים
טרג
באדמה
הצעדים
שסיים
בקשתו
##לבומים
ויחס
##בבית
##אויות
בילו
מסכימה
ואנ
בזיכרון
מאט
סוני
לטיח
אנושיים
האופנוע
במצבי
##ובית
שמורת
##יחא
המשפיעים
טכניים
##מורות
נשמות
מפרסמים
חיפשתי
בילד
##day
בשירה
בכול
יתנו
1934
נקבעו
שיזוף
שבמקרה
עלייך
גדלו
cap
השבעה
וגורמים
מוזכר
בהתמודדות
child
ומאידך
חלופי
חתמה
אמזון
##אלבום
וינגייט
להנצ
בהסכמה
מתעורר
הרווחת
##בייה
##תיישבים
לנתבעת
המינימום
##נגו
מנור
המלכים
שמרים
נוספו
התשמ
prot
אמבטיות
שהשפ
מבצעי
נחשפים
רצים
הנעליים
לדרגת
החלונות
הנצח
לחלום
החזקות
כאמצעי
נפרדות
gold
נציין
בשיח
##מונד
שבילים
השרת
סטנדרטי
שארית
האובייקט
הנאצי
באומ
ההחל
המעצב
השיל
המכס
מועט
מוזיקלית
ii
השונה
אפעל
סאט
משלוש
mor
סכומי
משפחותיהם
סיבים
##בטחים
עיניהם
##ומטיים
יערות
פורד
ליבנה
טמפרטורה
##ga
מקשה
מחזיר
צודקת
מוצגת
##םם
הצוואר
התקפה
הסכומים
##uss
קהילתי
גולש
הביעו
בברי
##געת
השתק
תאמר
מיתר
סוא
##ארצות
מסקנה
התיאוריה
נמרץ
מוצע
נגב
ומתע
מתואר
שאוהב
ופעילויות
ההנאה
רני
##go
##ורון
החירות
מתחבר
שהשק
הפסיקו
מילולית
yout
##וכחות
##זיס
הפרשנות
להפיל
סמלי
##יקונים
וולט
לכלוך
קרטון
פרויד
פלסטין
הפצת
בבניה
פאול
בשחור
פריחה
נדון
##רחות
האבנים
אליס
קריאות
מנגנוני
##87
##פעילים
פוטנציאליים
##аз
ברובם
под
ומוש
דרגות
ישמעאל
ומאת
איילה
ליאון
להסדיר
ייעשה
האומות
הגמל
כימיים
הרואה
הצרפתים
למזרח
המינהל
לתביעה
המלכותי
במיט
קורסי
park
online
הענקת
זולות
שבתח
הבטחה
##akhi
אינסטלטור
הסול
##ציוני
בסה
יחידים
המשפטיים
כוכבת
מאחוריו
ואומרים
הסיס
החופשית
##רמב
במוסק
הפירוש
הדלתות
שלמעשה
עדנה
##רמרק
כשי
כתום
מוסמכת
החוקה
בצורות
לתיאור
גבירול
מארו
סמינ
שמיו
##דנה
המעוני
קצוות
הנך
הנותן
והופך
האוסט
שעשינו
##מג
##מצת
גרון
מאתגר
##ivot
בתפקידים
##יכמן
הסמוכים
ונסיון
לאק
משתד
להבנת
עכבר
דיפון
обор
משלושה
הלבנים
השורות
ההומ
##ative
נוא
עירוניים
ספינת
##צויות
וממשיך
בסיכ
יהודיה
מחזק
לכס
##ורתה
בסביב
בלבו
ומהיר
תחזור
malakhi
למציאת
ילה
מצרי
בדיחה
הכרעה
כריס
שהחז
שנב
והקמת
במשבר
טכניקה
מחולק
זהבה
##צועי
נבחן
bab
קרדיט
מסורתית
עיל
מרוץ
##שיל
למשימה
בלוקים
לטור
תעמוד
##nei
לדירות
ההפגנות
ידני
ולהתק
הסיב
שבתי
##נזורה
4x
רופין
תוחלת
##ugh
pa
החליף
ווט
הזמינו
##ories
##يل
הקרקעות
הספא
בפומבי
מניע
יחי
ידך
שחיים
העצב
##וזרות
לניס
גמורה
פנטזיה
כיב
במערך
תחשבו
אטרקטיבי
דמים
קרקעיים
##ורייה
במרח
ומצב
top
ההתקנה
צוקר
##קסים
126
איטית
##רגנים
##iva
למוצרים
והשנייה
לסכום
לליגה
שהוד
שנוצרה
כשאין
התועלת
לייט
וויל
מחווה
סתירה
##ged
בסוגיה
המיוחדות
האלמנטים
קטלוג
##מישים
הכניס
בפסח
הטכנולוגיות
להורדת
המוקדם
לבשר
##גיף
משקפי
למסעדה
גנטית
אובר
לתוכן
mil
##да
רעידת
איתכם
##כורות
התמנה
סיפק
גמרא
##פריד
האשמה
שליחת
ריו
##מויים
ארלס
הרישוי
הייחודיים
טבעוני
ניצחונות
will
לאמא
מענק
ארס
##פארת
##אושר
שהתרחש
למיטה
לפירוק
פרע
נהניתי
מוקדש
מאנית
בנייר
בדיסק
ברוד
הלכנו
##84
מתחרה
סיעת
קיבוצים
כנסיית
##min
##uf
מזוי
##גנה
נשמעו
מצדה
ההתרח
נישוא
מקט
קערות
##ונצ
תחרותי
למכירת
אבטלה
##97
оборуд
לבלתי
##93
באמונה
##фор
בתיאור
אוש
בחומרי
שוהם
המקבילה
קריא
הלוג
ייצא
סביבתי
נוסטל
122
רכבו
המתלוננת
עיתונות
כלשהם
וצב
כריתת
לפניהם
המפורטים
back
וכוח
##נחלות
מניס
שגוי
מהמג
לכוח
עזרו
עבדי
הניו
ההתקדמות
sab
##חרון
יבשים
##ox
בהוצאה
הכהנים
השפות
רקמות
הדרמה
מעליו
שנינו
##ок
וחברה
השקת
לעכב
הפנאי
יזכו
ומהירות
נמלים
לזוז
עוול
החלפה
שבבעלות
ישמח
##סוך
בשפות
הימי
בלבול
משפחתיים
מוערך
##יזי
הנאמן
##זמורת
והיח
ברובו
תעבור
התאבדות
pat
תצליח
##ומצת
למתחם
נמכרו
המדינית
נברא
אנגל
שמכיר
לאהבה
הסני
ההשראה
old
סבירים
הוכרז
העצומה
הכובש
love
lang
השימו
קרוס
##מודדת
האמורים
##ishing
עדכני
פריטי
yehuda
##bre
מקדימה
ושיש
יצרני
חללים
שהתע
mem
התחתית
סיליקון
##טרל
מסבירים
וארג
ומעניין
השווי
להתעורר
##וסות
מטא
בראשותו
נחוץ
הימנעות
##רימת
להדביק
שהדברים
##נבים
קריטריונים
##נפים
שנשים
כישורים
מצרפת
הדעה
הסוללה
גזענות
מינרלים
והשל
שנדר
בסבלנות
יקב
להפסקת
נמשכה
מוגדרים
המתקדם
תכלת
שושלת
מחצי
ושיח
##בילי
##any
אחזקה
בנחל
לתשומת
שרעבי
שבן
אבותינו
קראה
גילתה
בנוח
הנדרשות
דיברתי
לגינה
תכנות
מאובזר
וכס
המקיף
הסינים
דהא
ומכיוון
שתרצו
הכרם
רחבים
פתחים
מפרץ
בוריס
לפיצ
##אקי
##לילי
התחלת
משקפת
##ava
ממצפה
לרצפה
##חקות
סרטוני
מחסני
הסבירה
ממוס
פורצלן
פיצוץ
amer
##זז
מתווה
##סידי
נפתחו
הכפרים
מעצבי
const
יהאד
כדבר
קולומביה
מתמקדת
שחזור
בפרויקטים
שהסרט
מתרגם
##ateg
רת
##תיחות
שמקבלים
לבמה
במסורת
הדימוי
ההכרזה
הגרפ
שסיפ
מבחני
##ева
המטור
##כזריות
הבידוד
##ובילי
והמשיך
במתח
חששות
בהשקעה
##סטינה
נפתחת
cd
##cript
##בלב
נשבר
כבודו
##ду
לאם
ושום
אחיזה
לחשוש
זיכוי
בהכנת
121
תאילנד
התוספות
הדל
מתחל
הזית
ממוש
ליהודי
חילוקי
לנכ
לסלק
התגייס
המצוה
צביקה
##ופקים
נלקח
היבשה
ומוק
סלטים
להעסיק
bas
תעסוק
השולט
העליה
הכנתי
שנתנו
פחמימות
127
ומבט
למשת
אורגנית
ההיי
הקרנות
##סיסים
ופרסום
ציפורניים
##lex
במשותף
כשאנו
נכים
מגישים
פוגל
ונחשב
שהמת
לסכן
התעלה
בוטה
התרגשות
השנאה
ואדם
טיפולית
נעם
##פרופילן
יהפכו
אחורי
ערוצים
##ומכת
אהובה
כינוס
למערב
שהתחיל
סיימו
לשות
מפרש
העי
השית
ממלאים
לנתבע
##פליקציות
האחות
במשחה
ריאות
האמצעי
יקבע
והאח
##נפי
автом
##תינו
ניגוד
האלטרנט
להתעדכן
בלוק
במיני
משוע
מעגלים
לכיש
##רכאות
להוצאת
טיפות
מושקע
משוחררים
##נקוט
אדה
פרוק
##ray
גילם
управление
תיבול
הכרו
המורשת
מארגון
ממט
ההיגיון
הינך
לתופעה
ולהד
בתכלית
עתירה
לפסח
בדים
##פיקו
שיווקית
לעמדת
365
ושטיחים
באוניברסיטאות
פונקציות
פאל
סוכנויות
סילוק
לניקוז
דרשה
##שאות
במסעדות
##תרת
סבירות
שיוצר
שידוע
יעבוד
תבלינים
##ואליה
אגר
מכא
סקרים
שבתאי
הקלות
בפורמט
וליל
##ליקים
בפיגוע
סירבה
דיגיטליים
כחודשיים
שלשום
הגירה
##ift
##מקת
בתב
ולפעול
ודאות
והעולם
הרשמה
ובנ
תיאוריה
הנגיף
חורים
בכאב
היוו
שינתה
שעלתה
להזיז
אמונות
ורשה
ספקי
הנחיתה
לינו
בשיק
לידע
ועלה
נשמת
מוצלחים
בעסקים
לטענתם
יפר
##מיתות
##חריו
אסטרטגיות
bir
כלות
##ня
רקטות
הוכיחו
שקיימים
להפעלת
ניידות
##ско
הממוצעת
למגדל
זרעי
ברזים
והכוונה
מייש
מסיים
שטוח
הקשורה
ומשתמש
שידורי
וחומרי
מרתפים
##קיימת
##באן
##נקות
בטבלה
כנגדו
כנות
שמוביל
מכין
לצידו
איטלקית
חומת
החיסכון
לפניה
הירוקה
ספרדי
##גורם
שמשמעות
אנטיש
gener
האווירית
הארכת
שמחפש
המופלא
נהדרים
הכיוונים
קבלנים
סבלו
1918
##דרוג
רכיבי
שקיות
הקדמה
1930
שנקראת
הנגד
רעייתו
שיצאה
למטופל
##יעם
השחורים
העממית
שאלוהים
התומכים
אכיפת
פגיע
להאשים
החמור
lim
הציון
שנמש
ייל
ניתוק
קורט
התנאי
משוק
וחברים
סבורה
הנוכחים
מספיקה
משתנות
נאלצה
החפץ
לתקלות
##ציא
מהדברים
פוגעים
mak
העדים
ומטר
ואסור
בהובלת
מסורתיים
##בתים
לכתיבת
ציל
##ping
הפטרי
ויתור
##ותיר
##בינים
##ene
צבעוניות
סטטוס
ומנכ
והתוצאה
המוזיקלי
##oice
commun
ההתייחסות
מומחית
השריר
ומאוחר
לתנועת
ופרופילים
לאזרחים
שהוט
בשמה
זהותו
גרוניס
##געים
הפסל
ריבאונדים
התגורר
התעור
ארדן
לזיהוי
להיערך
שנמשך
העמודים
מחבל
לקש
מרמה
טרקטור
בחברון
##ראט
##ושן
שנקר
שכאלה
ועוצ
ארנונה
אפשריות
##ומין
בולגריה
יעק
תישאר
##כיח
שעבוד
פלדמן
נבקר
##ding
ברנע
בטורקיה
היווה
וגן
כבעל
המול
שלטע
האוק
מרס
כלכליסט
וחזרה
סרחאן
ועולה
מלפ
##יציות
מצידו
מתוו
בצמוד
הלוך
ליכולת
ידועות
##נבול
##יבוק
בהשת
הליט
גלריות
לפיר
עיבוי
אמינה
##נטרית
sms
בכף
דאמר
##91
אייפון
הליבה
המבול
##יסדי
הטבעיים
ונשאר
##ולינה
גולדה
##מורים
אלקטרוניים
##אסט
המוקדמת
ep
##רטורים
ובעיות
bnei
לנחל
בהתנהלות
היסט
אולגה
##מסטרדם
hel
לאופי
המדף
יוכ
התיקים
rad
סנס
במועצת
נהפך
ste
מזרונים
טפחות
רובן
חדירת
##גרשים
##נשא
פסגת
##ותיו
גישת
ארגז
סידן
##רדמה
מתאם
##ודן
הסוגיה
ארלוז
בטכנ
ניתנות
וירטואלי
ההנחיות
אגדות
הרלב
חומרת
מומחיות
##סטו
נרצה
במוצאי
מהנת
בנקודת
קונק
##וארו
הסמכה
הדגמים
מיגון
ממצא
והוע
דביר
בהולנד
בעירייה
##ious
##יגרף
שקמה
התקף
ולמילוי
נגדה
הומני
בפינת
תעלת
בנבחרת
##аб
הסקס
מכלי
להתרכז
##נחם
תושבת
כשלושה
##בועים
וינה
לתלמידי
ah
u05dc
הקניון
##82
soc
שפעת
##yal
השריון
לאלוהים
להיווצר
המענה
##рак
למילוי
בפקולטה
במוקד
נסיונות
להקנות
ולבקש
##פדה
הנפוצים
לחסום
פוסטים
הדב
החסידים
metal
##יפד
בכתובת
הוענק
לנצ
המחצית
##ann
התקפות
לכתובת
תקפה
לעורך
הנטייה
воз
יפגע
המונו
להפריע
חוסיין
הטא
המנהלת
עצומים
לוועדה
שולמית
הבחנה
זעיר
החושים
נדירות
באדיבות
בחקר
סיכם
שלומית
שמאוד
שקיבלנו
האגדה
שחשב
רכים
שעומדים
קמו
##ara
2020
ופוליט
צלב
מסכות
הגשה
המצרית
במקצועות
ברזילי
המונה
שלישיים
דעתך
ומראה
מעוות
international
ריבה
כניסתו
ומסי
מדריכי
##פלס
טיים
##מטאות
##94
המובה
144
התקיפה
כפרים
נופלים
למהלך
מקיימת
המיון
אבשלום
הבחין
בלוס
רכבות
הפרות
המיטב
בפתרון
וקונסטרוקציה
לגרמניה
לסיבוב
באריחי
וממשיכים
שהלך
בצרפתית
ומרגש
אוהדים
מובנים
ליבוביץ
רובה
להלחם
##енты
וביטחון
בעול
מוזרה
##מלת
האוזן
מקרקע
טרוריסטים
##fl
לתנאים
инфор
##מצע
##ство
האסטרטגיה
ומבוגרים
עקרונית
train
##еш
##ינתח
שגריר
שראוי
##פתיות
שכתבה
סבו
כתמים
##וקרן
שריון
na
בתג
פיתחה
רכות
סמן
הפופ
הנודע
##לוקות
052
מרתקים
son
בפתיחת
רימונים
בהפקת
שיבוא
דופק
תלב
פוגשים
הקבועה
המערך
האייפון
ואחות
למשבר
ומשמש
מטעמי
בגרמנית
ענבל
##מלכת
הקיבוצית
##эр
לגיטימציה
הגיבורים
קווא
מרזב
מסודרים
נוזלי
anim
ואיפה
##יניץ
מהעובדה
ספריית
נשואים
בוחנים
לאתגר
##תיפאדה
ישות
בוחרת
בעובי
הקונספט
ואצל
ועיין
המנגנון
מערבה
הקדום
רווי
מגובה
ולקר
מבחינתו
כותנה
ממוקמים
וגורם
##למויות
להגברת
מופק
בהתנדבות
zikh
תוהה
העומס
הפטור
נבחרות
מהמם
חרקים
בירידה
zikhron
בגופו
לאשתו
הכינו
כדלק
גפני
##יבודים
אלט
כפל
ושינוי
כנדרש
הוריהם
הקפידו
למפעל
##קיץ
המתנחלים
ארגזי
להיזכר
ההיפך
להמיר
בישוב
ראשה
נמרוד
##אין
מאק
מעד
תכופות
והפכו
להגדלת
הציעה
שקול
גופות
##גחה
הסביב
וצמנט
##יטמין
פנינו
בדוק
הנסיכה
גרמנים
מכהן
האחסון
##וספים
##פיית
##סוס
ויוצר
דמוקרטי
метал
פולק
245
ביוזמת
ורצון
השחיתות
מצטער
##hz
##יטיס
אופיו
העמוק
ואע
הכין
להתקנה
המפגשים
1917
מאירופה
הדמיה
ממאה
האריזה
##ип
לחומר
בחורות
index
דאת
קליפ
שמתחת
##שלח
טבעיות
היקרה
הקרבה
מוקף
גובר
יוביל
##שרדו
מופלא
באולפן
ישבתי
שגרמה
max
##מארטפונים
והאל
עצומות
תמי
מפא
##פכים
לחנויות
אצלך
נבע
שפעלו
ראשונות
שמופיע
ההתאחדות
כישרון
גרועה
למשקיעים
תוסף
רובוט
להופעה
לאפשרות
בבריכה
הממשלתי
לתחילת
לקצר
המסרים
מצהיר
הטבלה
מתכננת
##איי
##аты
השמונה
וכבוד
##ane
וצמנטבורד
מכדי
ושהוא
בזוגיות
##urt
שנחתם
##irl
התריס
ובינו
элек
##ош
univers
בטרי
##ומאה
חוליות
החצי
בהליכי
food
##פרצות
לכיס
ספורטאים
בידם
חונ
##za
לאלון
מוגבר
ומוצרי
בציוד
מועדוני
ניחוח
##גינות
רכס
כשהא
תפיסות
מקדים
##לימים
המתנגדים
ההנדסה
הבינתח
הדומינ
מומחי
dec
במטוס
מוכשרים
כשאת
ביחידות
מנקה
הערביים
בדרכה
במוסקבה
הנאמנות
נתר
המחשוב
צלחת
информаци
מתמשכת
הכיסוי
גרוסמן
תזונתיים
##מוקים
color
העט
מתס
132
שביקש
תשרי
חץ
הקלדת
##רגה
##גרף
נכב
והמון
חוה
עלילת
אלימה
בריק
לאלפי
ותוכלו
תהיינה
להסתדר
ומומלץ
המדור
נשבע
הגלגל
ter
וצל
להתפטר
חדשניים
יעזרו
כרונית
בחרדה
lg
למצות
סייבר
במית
נאם
בהזמנה
סוגיה
נורמט
ומזה
##уль
קונט
רווחי
אגרת
בהתבסס
גלגלי
וולפסון
שכא
##צלים
בפריסה
המרי
הנקרה
טקסטיל
מתהליך
##קונס
פקודות
לבם
במעבדה
##нои
שניידר
##דדים
ליצר
ההתמחות
עוקב
##סינג
הנשי
##ורגית
לפעולות
לפח
artic
בעומר
דרשות
בוכ
מיטל
העדויות
באנרגיה
בשטחי
סטוד
ליקויים
ואהבת
לערבב
ההפסד
##נאית
קדומים
under
המייצג
##והן
צאצא
##out
לאזן
במשפחת
האכילה
זהבי
המחו
##rit
הפוליטיות
שגדל
הגנרל
לבגרות
מדין
המורכבות
לפנסיה
##רחיב
ולעבור
אלתרמן
זמניים
##וויים
##ודדות
הרד
מאול
חפירה
למול
יעמדו
אציין
בעייתית
נשאלת
מגרמניה
קונסט
משתק
האסלאמית
acre
ברומניה
ומחוצה
מרכזים
התשוקה
רשל
מתקיימות
##וזק
זכויותיו
המזה
פניתי
מצדו
אוהדי
עוזב
הפיכת
שיעשו
הנכות
המנהיגים
בהוראה
לצל
##שאירו
בארבעה
התיירים
להעלאת
##ional
הישיר
והטוב
פיננסים
משוכללות
ידיהם
אנושיות
רגועה
בראשי
במרוצת
לחימום
זרעים
עתידי
לתלות
צאת
##ичес
אנל
רובנו
מלאכותי
הקמח
מתפתח
חווי
מזכירים
השיתוף
החטא
ביקום
להפחתת
##מליות
##ية
המקד
אורט
##פקדת
שעיקר
היפנית
מוזס
העוברים
בהיותה
מהרגיל
שקש
החזקים
mob
נפץ
אוריה
והעיר
הנחשב
רוצח
רחבות
שגרמו
כמוה
הצדיקים
שינויי
מנחת
תקציבים
וקבל
סלומון
שבעקבות
נאמנים
טהורה
ושימש
בוטל
המכה
כשרים
עלמין
הלוה
ישמש
רביע
להזדהות
כשיר
רוזנברג
ערביי
##נחים
ריקודים
והוש
משכורות
שחול
הפרידה
קבורה
האגן
מרוכז
מהעבר
בגילאים
לגלוש
בביקורת
ומאחר
יונייטד
הסוס
למצבו
עקרוני
הועלה
זמרים
project
הזוי
הגרי
בכיתות
וביצ
שהל
כינה
ומתמיד
##area
הדדי
וקידום
וסג
בם
מתוקף
ההסכמה
music
##חרו
##ract
חפצי
##שאול
מופעי
##ас
##סטוס
הכרויות
פרופור
שהמא
עניינו
געש
כרת
ובטוח
מתבסס
ver
להתחמק
##יברי
להאיר
mult
דינמי
מרקחת
השוו
בבדיקת
נעלמה
שלרוב
ליבי
##ei
חסרה
צרכנים
ומערבבים
הוגנת
שתים
שגיאות
החרדה
השליח
השן
לטיולים
סלעים
124
נשיאת
מקסימלית
מחממים
מקדמת
אימת
כבני
מפוק
עידית
לארבעה
ייסד
לדחוף
חושפת
הכותבים
משוריינת
##92
המצאת
ודברים
יופיעו
התחל
tab
##פקח
הועברה
העוף
בעט
המתמודדים
עדשות
השפלה
הקדיש
הסובבים
זייד
חרדית
חזיר
החקירות
תלויות
וקד
תתקבל
אחרונים
הארמון
##בעם
בביתה
##ities
דחף
מולד
האפר
מסירות
לפסק
הניחו
אליזבת
המוצגים
קינמון
ווסט
שנעשתה
ותו
##חונו
אליקים
בלגיה
יכולנו
המעבדה
למחלה
מתבססת
חניון
עוברות
ומורה
בתכנים
העריכה
הסטודנט
##ience
במניות
שייח
מהפך
זכויותיהם
לשליטה
ההרוגים
יתע
לרפא
וכשא
לקוי
צוה
במדויק
הצבת
קוביות
תקפו
##לולי
יחל
במצפה
במישרין
אינטרקום
הספה
לשחר
המשמר
טענותיו
לעקוף
מצטיינים
הסגר
##יצקי
ההמתנה
רבן
צלילים
כתובים
בחשב
יאפשרו
האומ
בסמכות
050
מאוזן
תנובה
מסמכי
ויכולות
mer
שן
וזכויות
בהלכות
tre
נבדק
##גוס
##ora
##נצה
הגיון
שואפים
מחסום
להתווכח
לשנייה
סלולר
הרכיבים
צרכיו
##ליד
##דינו
יציג
143
מצויד
פסיכיאטרי
הבידור
ועושים
caes
מתקשר
מעודדת
פולימריים
ודווקא
מלת
##כחו
אוחנה
וסדנאות
בגדלים
מנש
##point
להכות
טורק
הממוקמת
לתאם
חגורות
לגז
netivot
ללוחות
שרף
מוצק
לעשן
ושמירה
האחיות
line
במשמעות
איבדו
השתנתה
בערעור
תקוע
בישיבות
##צחים
היחסי
וידיאו
ומשפחות
בעסקה
בקערה
בנינו
הנישואים
והבנה
##לטל
היעילות
חמצון
##ויס
נשמעת
למאמר
מחייבים
ירצו
שבאים
נקבעה
סירבו
רעילים
הרחקת
שהוצגו
ולזה
שוקי
במשפטים
בהזדמנות
צביה
##ידריות
##ובני
##יפונים
ירה
לחנך
להשאר
בוול
מדינית
youtube
טלויזיה
בצבעי
שרציתי
##ited
שנשלח
ההיבטים
##81
מושפע
האטל
תותח
הענן
קבצי
האתיו
כדר
##קרנים
ורחבות
והמר
הסופ
במחנות
בחיוב
##hd
גיבורים
##ич
החווה
משעה
המסלולים
חיסול
##ממה
המבוגר
מיותרות
החניה
שהובילו
##וול
##זאת
מוסלמי
כמקום
הרישיון
שמקבל
הרשב
שבתוך
מהפכת
המעביד
מנתח
יצרנים
הספקים
ממוז
הנפוצות
##жи
##טורית
##שנה
אטרקטיביים
העוד
לאבחן
##מצות
האחרת
הוצגה
##דקק
##oy
רביעית
ארלוזורוב
iphone
במהל
מחלף
##רכזו
להישגים
השערה
ליקויי
ההערכות
##ויג
מפאת
##רטית
##ty
ששמה
פינוק
אולפני
שקית
ויודע
ענקיים
מודיעים
בדרגות
בעבודתו
how
האמירה
##וציולוגיה
ut
##שאה
שחורות
##וליות
מונעים
##עותיו
לילך
bit
מהצבא
כיסאות
##צצות
לעלי
להחיל
מאמרי
חסות
גולדשטיין
##מטק
אמנותית
מסכי
גוא
הקשבה
##ры
מסילת
הפצה
ולאורך
חללי
הנאשמת
##נקל
קליטה
נכה
ובמו
שבמח
תלך
נתב
אינפורמציה
תרופתי
לעיניים
לצמצום
שסתומים
ולעזור
הערביות
אטי
##ונרדו
למרגלות
אסק
##get
ההפק
לנתק
והדרכה
לחיפוש
כשהח
שעכשיו
אתך
לכניסה
שזק
התשס
פיא
במלים
live
ורדה
יישארו
ילכו
##ized
כבת
הגבלות
לרשימה
האופציות
קבוצתית
לרחובות
יגיד
##פרטואר
##ואג
לגרוע
שירביט
במפלגה
##בלטים
שרד
136
פגישת
הפוט
פאס
היושב
בסופר
נמכרה
כשלוש
##יהה
מפוארת
במערכה
##не
1500
שיקרה
הוכיחה
ולדימיר
להפקת
##וייב
בקופת
ברצועה
להכנה
שמציע
סמואל
שחיפ
ההתנתקות
מבחנים
##ность
נזיקין
הייחודיות
הבורג
מבואר
הטילים
קעק
מובנת
ההצלה
הקנייה
##וכחת
קרובי
מהסרט
סוויטות
התוק
להתנהגות
שנפתח
ולהסת
ספריה
ההדפסה
הופכות
יוקרתית
מקוונת
ולסייע
##מקול
לאורח
כורס
הדיוק
משוח
הרומאים
גנרל
מכבים
תנא
הריה
התאמות
##הגים
ספג
יקנעם
הכרות
השכבות
מאוזנת
להצלחת
הנובע
אומגה
עוני
1932
ומקצועית
מתועשים
bal
dire
אקוסטי
במסעדת
התרבותית
##דהה
בסן
נחקר
השופ
האחורית
החולפת
חוד
שבטי
בציון
נקוד
גאר
הצפויה
לסדרה
kid
ההרס
##יזבון
המושל
קמע
בקביעות
##צבות
כנפיים
השריפה
למסך
להיאבק
בתביעות
בלוטת
באולימפיאדת
חקלאיים
##we
אולפן
כדלקמן
בפלא
וגרם
הבינתחומי
תיכונית
##ды
לגיר
בגלוי
משח
הלאומיות
שניסה
הבריאותי
ber
אפקטיבית
##סקיר
blvd
מתפתחת
בבנייה
מאלף
השקפת
תסמינים
התנועות
גבו
במהלכה
אדירים
הקרינה
דד
והמי
הלאומיים
אספלט
לבנין
##חדשת
יאמרו
להקדים
הרלוונטיות
lcd
לגרש
וברח
ועומד
סלוב
התייחסו
והמרכז
באלפי
בפעילויות
במסך
דאגו
הריצה
##ze
מעבדת
ביטחוני
יושבי
הכנות
השיט
שנבנו
לנסיעה
דנו
##ונומיה
הימורים
הבקר
הפרמטרים
הקצין
begin
ועקב
ועידת
מותנה
##стру
##יאש
מסה
השכן
ומבקש
עליזה
העניקו
כרום
לחיפה
ולנ
בפרדס
משרדנו
לשמירת
מאפייני
והתפתחות
לפרנס
לממ
אקדמיה
לחולל
שיעזור
פרצו
לשטוף
הפורט
##מדם
##מצית
נפילה
בקבוקי
##yn
חגיגית
אשרי
ביצועי
משוער
לעיתון
derekh
##פאורה
בסטנדרטים
כריות
לנושאים
שסביב
להקריב
שבור
##ירוגין
לספוג
עמדתי
לסח
בתחנות
##חזרה
לסטט
אפקטים
##view
שניסו
вы
שלעולם
פיתרונות
ביפ
##בויים
שבגל
יורש
##גולת
הזוגות
##וקן
כתף
כמנכ
חוקרת
סדיר
##דיאנים
пров
ניפ
133
חלופות
צדוק
לטקס
תוד
230
וניקיון
בייש
תגידו
פיתחו
תוצאת
קהיל
ב19
##פיט
##מונאי
##פריות
ימית
הזוכים
גמילה
##ura
בסוגי
אוכלוסיה
פגמים
הקורבן
duration
##ton
לחולים
בסתר
##ימפיאדה
ותמונות
הפעמים
שמחתי
בונוס
מתחילות
ביטוחי
ידיה
ולוח
היממה
facebook
מושא
מיוצר
במרוקו
ההווה
סופג
הותיר
url
גברה
bial
הקניין
הטבח
הקרוי
הכירה
לטיסה
station
הנכם
לסין
az
ברך
החופה
להעמיק
המדוברת
בדוח
##יסטנבול
להתב
אפיה
טלפונית
##קח
ההכרח
אכזבה
##ובנים
מוציאה
over
קן
בנכ
לפסול
בשמירה
נבר
##back
בעלמא
video
נשמתו
לראשי
##ral
mp
בידיעה
##ре
הכספיים
תתחיל
לביטוי
כעין
gra
שותה
במסמכים
##umb
##sc
וחוק
##אלד
שעלולים
##יונם
מעמיד
איבוד
##לחץ
הביטול
קדמי
רווקות
холон
למבחן
כמקור
##בירת
אבחנה
##כולה
שחוו
להשפ
השפתיים
לסגנון
but
לחברו
בגמ
ניקח
זקנה
למסגרת
צווי
תקוות
טיפת
המשמשת
ולאו
האספקה
מצטיין
הקורבנות
הסובייטי
אנת
עצרו
##овые
לשגר
##ביזרים
ההיתר
ובחלק
במנוע
##וצרים
כנסו
מבן
אחזקת
חוויתי
מגזר
public
לאום
פלדת
התנהל
איפוא
שפעל
האבטלה
##וקקים
מדאי
##онные
מצטרפת
סנהדרין
לצינורות
כדאית
ולעבוד
בגבולות
מנוה
בתיקון
השורש
1921
מצעד
stre
הבהרה
##ada
מטורפת
גבעות
האין
לטעות
להשכיר
בקיום
שכאן
אלמלא
בכיף
ולילה
בקונס
השתד
##מתים
מכוונים
ובעניין
פאי
שהתובע
הנוסע
138
הקריטריונים
בריבית
1924
נוזליים
כניסות
ריחות
הישראליים
סינגל
עובי
קע
התופעות
##ושופ
דובד
##משל
וחיי
שיודעים
שמאז
תיו
ברנ
החרדיות
ליחידה
לאברהם
ואט
ויזה
פעילותם
caesarea
##נגה
המותגים
שנפטר
##וארט
השיקה
בחת
##ites
אגיד
סיא
המליץ
הפרקט
ומאי
וחומרים
##ליסטי
מבוצע
ובצדק
בפרטיות
סובי
מקיר
ביגוד
##כזבה
בעקיפין
נגה
מקובלים
בשינויים
נתנאל
במאמץ
לאיחוד
היוונים
אמונת
שרואה
##ler
השכבה
בהסכמת
מעגלי
ישרים
והרוח
בעיסוק
ערביות
הפולני
המחוזית
בלפור
וארבע
ובמהירות
בתרופות
цен
בעליה
לגנוב
שהממשלה
לפצ
כבסיס
כמפקד
מלהיות
מסירה
שואף
וניה
המלים
העיון
במסחר
שהחי
מחב
##ta
ברירת
call
בביתם
מוגש
בעלייה
להירגע
בגרסת
האבולוציה
בחקלאות
שמנסים
הולמת
שבנה
שיריו
##יתוב
שעשית
חייבות
שפורטו
##ופתיה
sex
fin
המחדל
התרגיל
והיד
להתייצב
##ליטי
לפסיכ
רשמה
תחתיו
קרבה
וידוע
למאות
הרבע
פרישתו
יקח
שיצרו
ביאור
קולקציית
תשלם
בדח
מוסכם
מגיבים
##מעויות
נורו
##תיימה
היזמים
נטלי
חופים
יאה
ומוד
לרעיון
אינטנסיבי
לדת
לימין
יפעל
באדר
ריכז
געג
##בוט
התנצ
אגוזי
##מנם
מוגבלים
הצליל
בהגשת
עמידים
##וארות
מעז
מטרתה
##ניץ
במארס
וללכת
משמעותה
בצעד
הפינוי
עסקינן
הטיולים
איזשהו
להיחשף
וסימ
הנובעים
מוסט
משמעותו
##атель
לסמל
מחקרי
שירו
עבירת
ורואים
##לקסי
סיימתי
רזיאל
שמתב
הוצא
log
עיכ
נהגה
התעוררות
זורמים
השפע
עוזיאל
הסיבוב
להארכת
##ושו
##לחתי
##ульт
לניצחון
הקבע
הפוטנציא
השתיים
מתשלום
הסמל
העדיפויות
מיטת
סכסוכים
הלוגו
בסופ
משעשע
##berg
לנדאו
תמימים
##כתבות
המושגים
נדרשו
מכנים
בברזיל
מפסיקים
##ano
אורנים
המהדורה
בשורת
פרת
וכב
לנז
עתידה
aw
גוברת
חשה
השיירה
היומית
הנובעת
הנוצרי
לשילוב
מעמדם
כימיה
לוינסקי
154
bialik
ראית
אשפה
לרישום
חילול
ואביזרי
סעיד
למועצה
##עלו
משחקת
##ייתה
במדרגות
תשאלו
לאזורים
לבבות
##ריפים
לחצר
##ism
##יבוא
הייצ
יכולתם
ולקרוא
קדיש
##דמו
שתדעו
הדיפל
מנין
נלווים
יבינו
נוצרי
ניתוחי
לומדת
הנגישות
דיקור
##וצל
הסיג
ניצבים
בניצחון
##ווילי
ар
סחורות
מעונות
##ונדה
מופעל
כנף
סקרנות
החשבונות
##סיי
חשבתם
cn
eur
מכרה
ולשנות
##דהר
ולפג
בתפילה
אומה
סדום
בעיניהם
בכרמיאל
בניצ
גנב
שרש
קריסטל
הבקרה
##מחור
אוזניות
עיוות
המנט
##יוגרפיה
בפנ
##uuuuuuuuuuuuuuuuuuuuuuuuuuuuuuuuuuuuuuuuuuuuuuuuuuuuuuuuuuuuuuuu
##ושפ
הנקה
סבב
מסוכנות
אסורים
##כמו
##ונוב
##וליך
##מאיים
ולספק
קברו
להבה
בגידול
הראויה
יציא
ופני
חזרנו
ההתאמה
להיגרם
שקוראים
##ופלת
פיד
הסתה
ישרא
תורתו
השיפוץ
קין
מערת
לכלבים
הבקשות
city
לסירוגין
הנקי
בהכנסות
השייך
ולהוציא
למחשבה
בהרצאה
ורמ
לאוניברסיטה
בחריפות
ולמען
שבסוף
ובעוד
עזריה
זולת
גסה
ומתאים
עבדאללה
סודי
##וויי
מרקס
ההשפעות
sha
העמוקה
##נינג
שערות
האולימפי
מכובדת
1925
לבלי
בבור
שלקח
##כניקה
ויבא
למותו
להערכה
מואב
כשצ
הכבישים
האטרקציות
ואמין
##צאה
המכילה
חילונים
##יתונאי
דלה
החישוב
הסעד
ולגבי
קפיצה
המייסדים
באפשר
מועדי
חמלה
פחמן
שהפר
הזול
##לבט
חזרות
קלפים
במדד
שנרצ
גלילות
##ashion
##works
קלטות
מהותיים
יבחר
אמנותי
מיוצרים
דוקטורט
נורות
האדיר
##נזוס
נוגעים
הערת
היישום
מצגת
שקרים
האבחון
הזרקת
לפרוטוקול
כיכ
ואדי
במהדורה
תפר
##סכם
פולחן
והנח
מתלה
מתגע
בכיכ
הרבעון
מאבן
ברשויות
תמוז
לפופול
המשאית
בקצ
הקלפים
הרת
##ארון
ביטל
לתגובה
במעצר
ישתת
##יסוד
המעטה
##ники
ענפים
זועבי
##שתן
##קהלה
שהציבור
פרות
סימו
המחיה
בקשיים
הערבות
כיבוד
לכסף
engineers
השוא
התעבורה
צוותים
ביבנה
מפרטים
סלולרי
מינר
בשכ
בשלי
rgb
חוצות
ההומור
לכנות
במחקרים
##ימינג
gur
מעשיות
למרוח
##ency
בגטו
##שואין
##יונה
עלילות
הרהיטים
רצופים
משונה
מזוין
עמלות
##יוף
להצטייד
מלוחות
הורוביץ
האיכ
עתידיים
פארם
##יזיקה
גבעה
ната
מחליפים
##חזי
תזו
והחלו
נמנעת
מסין
אריחים
##ידורי
ידינו
האוכלוסין
ישמחו
עזרת
ביכולתו
במדיה
ומהם
חרם
מיקומו
המילואים
במכבי
אישורים
כלליות
##גדיה
##ular
ספה
למסחר
פסיכולוגים
אגו
ולגלות
ואלמנטי
מחליטה
בדעתו
moshe
##ural
מנגן
##ניסטר
המניע
פלס
שזור
מבודד
אנצ
זכאות
לתיאטרון
פרטני
עינינו
##נוזה
להינשא
ממוצעת
##יאלית
לבידוד
השפיע
##яз
והכול
הפוליטיקאים
##סלם
ולהתח
ברווח
מרבה
סיווג
התאה
משמעויות
מאובטחת
##ראיים
פירש
האלכוהול
מעיינות
שכנים
##יחסה
סדנה
zion
##леи
центр
size
לפרשת
גהה
בזכרון
קריטית
התערובת
גירוי
משכנ
ירוחם
כתחליף
תודות
משלבים
החיסונית
השוטפת
פנ
מוכרח
si
##אלצו
מוזיאונים
מהני
הפונה
בהנהלת
ולדיפון
אמיתיות
לירון
תנח
כבשו
best
##ורחים
134
дет
המצלמות
דילים
רמקולים
כמדינה
בנטל
תפירה
##בולנס
לתאונה
##וסן
שולל
אנק
פצצות
##ראס
ועליה
האינד
המאמינים
מטל
ודרוך
הגלובלי
rt
מקלח
להתר
יודעות
מילון
bel
שנפלו
לשכר
בקירוב
סמינר
##פוצ
##ריטים
העשויים
כמותו
בהצטיינות
דלית
וסיפר
שקופה
היותם
במנהל
ממקומות
##שתמשו
##נזיום
הפינה
לתעד
מפחדים
ספורטיבית
שחושב
שכוללת
ובייחוד
שאו
מוסא
##ون
והשימוש
מהמציאות
נפק
לטלפון
בעיתונים
גרנד
וטכנולוגיה
מחויבת
המזר
לצבוע
מגנטי
כמיטב
##יטמינים
תדעו
להניע
אביבית
שנפגע
לאמן
##נשיא
האמנותי
nm
##גרט
הגיונית
כהגדר
בסיסיות
בנויים
קיי
להאזין
הבעת
בתוכנו
##יסטר
##ych
ההא
יחיא
זכינו
שאמנם
ולהוסיף
ייבוא
האסטרטג
וחלון
הדמוקרטי
שבמשך
באינט
##ימתו
השוכן
יאכל
האפליקציות
עקיף
מיניים
בידיהם
מולטימדיה
נלך
חיונית
##פאה
##דיפות
נאמרו
מיקוד
tim
הטווח
שלכאורה
אנדרי
וקו
##ution
סרן
ערביים
מינהור
וספר
שמהם
חדות
חתך
147
ילדינו
watch
אוניברסיטה
סוחרים
מגשי
##יתונאים
הפיזית
החלטתם
בטכנולוגיות
139
פציעה
התרת
משגב
המספקת
פסלים
השישית
יתיר
הקולינ
המרש
##לאן
142
שבוצע
להתנ
שחושבים
##קידי
התעלמות
פראי
בתגובות
אמסטר
מברשת
הורות
הטורקי
באצטדיון
שמסביב
אגרגרט
לשלי
גלויה
שומעת
מההת
##פליקטים
комп
מזומנים
בלעדית
באנט
נחמדים
שלכן
שנותנים
וילך
רוכש
מתתיהו
##מוטט
נעל
הסתבר
ופירוקים
התגל
הסורית
שחס
מלע
##ואטיה
פינג
נחות
המפוא
##טרד
ברגליים
##נובה
##גשים
1919
פיקסלים
עוררה
קארי
משעש
אביחי
אהרו
טקסס
כמורה
תושביה
בעיריית
פשר
מהרו
לתמ
ואחריו
מסחריות
דייר
שובו
למקם
להסתיים
ויתן
לטפח
שחייבים
לחובבי
הסר
##ינאי
בבט
לחוד
פייג
מרובות
##וסקופ
עופרת
האליפות
1914
ויעקב
ורה
בדירות
סיבי
במטה
שכיחות
רגעי
שקע
ההמון
נוהגת
למפלגה
מתרכז
התבר
תשוב
##וייק
שנולדו
שעונים
תמנע
בעשורים
עתק
והצוות
האירופאי
מרהיבה
##uel
הרחצה
המועדף
ממונה
הצנחנים
הדבש
##פטו
ביכולות
הזיק
חרום
שעני
בצלם
הפרסים
יהושוע
##ures
להימשך
var
התנור
הולכות
לרווחה
שמעניין
תווים
פוליפרופילן
המתכת
המצות
סגורות
זז
נעורים
ומנ
מגייס
עזבה
הריהוט
צניעות
יוטי
המאי
לעידוד
בשעתו
הרוצח
יפהפה
##56
ללקוחותיה
מסתובבים
המלאכות
##ights
שערכה
תשמע
מהמרכז
tri
##כנסות
להישמע
מגילה
מונוסון
עמרם
עשב
התפעול
ולהחז
ממלכתי
במרת
לסלון
##וקרטיה
נלחמים
התביעות
במחאה
##נשיו
אקסל
זרימה
אשכנז
מכור
בריטית
הדוגמה
הבולטות
נתפסת
ואמא
בחודשי
131
למוח
למינציה
שמעה
החמישה
שיגיעו
להיס
מספקות
אקדח
סיעודי
натания
care
##כירי
##ואית
שפגש
חיצוניות
invest
בוני
רציניים
beaut
אלטרנטיבית
תוביל
הרכש
##ool
הפסיד
במיק
לאחסון
##רור
הכפרי
השמאי
חריגות
לפקח
תרומתו
התגוררו
תפסו
לבב
חיוניות
נקר
נובעים
קסומה
שהובילה
השיש
שהמצב
החופים
לסכם
לפלסטינים
קדישא
אודיו
משותפות
חילונית
בזבוז
הרכיבה
התפקוד
מינכן
להתבטא
המחתרת
העומדות
המפיק
##חרט
חפירות
constru
תפוז
wiki
למכבי
##amp
שרט
comput
וארבעה
##בלן
והאמת
הקומיקס
##יאלץ
הפסיכולוגיה
שהפס
שילמו
מיכאלי
התגלתה
סובייקט
רקמה
שגרה
סוער
secur
סוכה
צבאיות
נחמדה
לתחושת
אביהם
שעבור
ולהא
##זרם
שהשתתפו
בבן
##גשמת
עלמא
שישים
האמנה
שילמה
##שטוש
היוקרה
##יזה
מזאת
המצאה
ההולך
##נסיות
דיירים
בפריפריה
כישור
השקר
##מטיים
חולם
להרי
##שקעה
הרשומה
הלוא
##שטש
במזון
ניצלו
עטר
אכס
נין
שרצו
בקהילות
קוריס
והוציא
נמשכים
##ווץ
ולפתח
##בריק
קראי
אכלו
התשואה
##פסיה
גולדמן
##קימה
לומ
מארז
בפחות
ביקרו
ויכולים
הונאה
בטוויטר
במצוות
##air
למזון
מגופים
הפרסומים
הגברי
אבוק
וסיכוך
##בוס
האפשריים
שבועי
רצונם
האתיקה
והיע
ולהכיר
שגויה
לשחקנים
בעקבותיו
יראת
סנג
המופת
מקפיד
במלואה
מובהקת
בהליכים
##ירותי
לאתרי
דבור
לאלימות
למבצע
חתיכת
במגמת
נקראה
שהחלו
פדי
כשהן
חסכון
התנהגותו
המשתנה
בהיק
נבו
אוכ
בשמי
לקניון
##aper
##בולי
והדרך
מיי
show
מפרקים
בעמדה
שמך
вод
##לבון
שבאופן
הארכיא
בסיני
כשג
שכמה
ההשקה
יביאו
##פקידה
הפסיכיא
החוויות
מתיר
בהתלהבות
sub
חיובים
שמהווה
doc
ושרי
ברגשות
שוחט
טילי
פלאש
העתידי
שלוחת
המתלונן
המעניק
למייל
פוח
למטיילים
וקיים
מתפשרים
שאיננה
ועמד
סינת
##פילד
##טריד
הבחורה
беэр
חיבורים
##חול
התיר
שאיפה
##ators
שיתקיים
las
הגשמים
ורצוי
יסייע
שביצעו
הארט
מקבלות
##מויו
הגבורה
בבניינים
עיצובי
התפרצות
##נמן
והנע
מברכים
התפתחו
##לטיקה
וזף
ונגל
והעובדה
לנזקים
מפתחת
ופרטיים
מדפים
נעדר
##ייבויות
משולם
הסובל
תקע
##זרית
אירית
הוקרה
ואיכותית
מהיכן
פרוש
בכה
##שמות
ניוז
שייג
ניצבת
##ניתה
הדופן
ותג
כשהמ
הופק
תלמידו
ליג
המוסרית
הכרזת
המוכרות
לאספקת
1922
לנאשם
הבריות
תרגילי
פורה
לאימון
##ists
טעמו
שילד
נמלט
הלטינית
ביקורו
ביים
הקמתו
##טוקולים
התמוד
אהבו
בנתונים
משמעי
נפוליאון
##כתם
##ולמים
החזקת
בעצמנו
מבש
העניים
ומרח
הקוט
330
5000
במצוקה
חזותית
bb
קנאה
הרמן
אופקי
להופעות
בתנועות
group
המדריכים
לנייד
wall
והפע
ונב
הנפוצה
השתמשתי
מטיל
מתנהלים
באותיות
שמוליק
משאירים
קלק
המיזוג
בסולם
יהו
ותוספות
##אמה
המרוץ
במידות
שאירע
שהתורה
מכשול
והשירותים
pvc
קפיטלי
היצרנים
להתנתק
ההייטק
ייצוגית
lat
תפתח
##לוק
ואחריות
ולבן
מלמטה
תביעתו
##זמון
מפוח
##חקת
##ita
במיטב
השטיח
שקרו
מחלוקות
הנם
מהור
מוותר
הזכייה
נסעו
זיג
למידת
שאיב
הסטנדר
קינוחים
שאחראי
וטלפוניה
control
כרמית
המגד
חסרונות
חשיבותו
סושי
מהשורה
##פריע
המרכיב
ההכרעה
שבטים
הוותיקה
שאיפות
נישאה
בפסיכולוגיה
לורד
מלאכים
לחיוב
ושיתוף
וארץ
חשבה
##eter
ומקומות
##וגרי
רעפי
ידית
המתמחים
ספיגה
אנטישמיות
היציבות
קוני
שמכונה
האוניברסיטאות
חתו
באט
באלי
##לובקיה
יגדל
ועיקר
אינטימי
בתוכנה
מקבילים
למגע
ההודעות
לזכ
גנטי
דוכן
מרובים
הגדיר
מרצים
service
מבשר
גורמות
זעז
דוכני
הגופני
לעמק
לצמיחה
במדור
מרתון
רמזים
הנעה
בקביעת
оборудование
מצברים
עטיפה
מעכשיו
הגטו
##כותו
ממתינים
שהונ
טנק
ציונות
האוסף
משחרר
תודעת
##יוטים
גבורה
ברשותו
##מקים
##כבו
והקט
הנעל
דואגת
##ka
הופעתו
אנסה
חולקים
וראוי
הסייבר
מתפללים
סירוב
האלבומים
מתנפ
מבטו
בנימינה
פירעון
מכשולים
נציגות
טפסים
הברכות
ומטה
לקוחותיה
512
hair
מצומצמת
גוו
תכנן
והלך
באוצר
כישורי
##ודרג
בייבי
מזוה
המוטיבציה
נכתבה
הסאונד
בימוי
יועצת
השווקים
מניה
שואב
ודוד
בדיבור
ואחיו
##achem
##נונית
גשמים
והחר
הכנו
##והנים
רנטגן
משרתים
מרוויחים
##גשה
146
רותי
גנץ
עולי
##שאת
##ישוף
בעמדות
וחזק
במחלת
שנקבעה
חשפה
152
##ник
תהום
ההופ
מגוף
המסיבה
ותשובות
##ут
לפטר
במקומה
בשולחן
יוצרות
סביבתיים
אופייני
ומחלות
האינטלקט
מבלים
בהופעות
כהנים
amp
הטיפוס
יתחילו
יאללה
להשב
וחדר
רווקים
שעבדו
תקרה
תחול
סגירה
בשמיים
בגלריה
הסירה
ללידה
כוסברה
מופלאה
מספרות
לן
##יפר
לאמנויות
האיזור
עמלק
ספרותית
הממלכתי
הלבוש
פטיש
brak
ואות
מבטח
בפורט
שנבחרו
התקין
לרווח
תמרים
פטירת
שלפיו
ששווה
ללשון
הבטחות
חמא
סוגרים
מדרך
##ראקציה
ומחו
ומוסיפים
לפול
גניבה
гер
וטעים
שנשארו
##תיך
תפוזים
לסדרת
הרכבות
שתוכ
למניה
שנמס
העניקה
מלוח
וגדלה
יריה
האוסקר
205
שרידים
menachem
hum
צום
המחייב
היינ
חביות
ערע
##זינו
משיר
##טרוא
בהנאה
המלחמות
ייו
##יזוז
בשליטת
ההשוואה
##mp
products
##וחנים
להסכמה
הבטון
אמירת
137
הסופרת
המעולה
מחזות
היבשת
אוטומטיות
המוא
מרגיע
הריפוי
בהבנת
ומדו
נתפסו
מתחברים
связ
##נתון
שופטי
הדבקה
הטקסטים
##קוק
##ועץ
שבפני
והנפש
ולצע
ברנד
ומקבל
למילים
טונה
שמל
##חקור
שעומדת
ניכרים
מעודכן
איטונג
##zer
##יסול
האחראים
גלג
מניין
##wn
האפל
המלצת
fir
ok
התלה
##בעיות
אלהינו
שמקורו
הפוגע
לשקר
אוזניים
ball
לעשרות
הפנימיות
דיכוי
##סורד
1931
בבקשת
פוצ
##ograph
חוגי
מדליק
הדינ
עירום
הלגיט
מהחברות
מיצוי
1928
##וקטור
דוברת
##טורה
##עללות
הדפים
אימוני
לוודאי
בהשפעת
במקדש
באך
##וויג
ומקבלים
חטאת
האמנתי
רנה
##פתם
שכתבת
הלבנת
טענתו
וישנם
מחיקת
הבניינים
יתאים
ללחץ
children
צלול
הסערה
קונבנציונ
дом
תצוגת
באייר
שהמט
קנסות
העליונים
מדומה
לסרטן
קציני
המצליח
אברמוביץ
סיבת
כתבים
אלת
בפיקודו
##טפו
##ye
הבחינות
הקרה
שמתחיל
עמרי
חפשו
מגדירים
mish
בפט
ממדים
תזכורת
מאורגנים
חגית
פינטו
שחייב
השהות
ולמס
בברכת
הושפע
שיביא
יוזמות
ba
וחינוך
מאחרים
שלעיתים
מגוריו
הלכתית
דייוויד
dig
הנדסי
ari
והתקנת
port
האמא
תעשיה
cb
##נסר
קביעה
מזהיר
ורט
לחוץ
לנוף
נירוסטה
הגס
הליווי
ללונדון
לאחסן
ושלוש
שומרה
טורס
המצע
משכן
ספרא
התרחשות
שמלווה
ולהעניק
אמני
שטייניץ
##вер
ההודי
לפזר
מראשית
קובה
והוח
נטולת
לנתניהו
גונן
שמסר
##led
שליחים
שאושר
##ро
באיחוד
וכוללת
מטעמם
שהצליחו
אהל
קופה
##ודרה
הפניות
ובמצ
פרווה
##sp
##קם
מפקדי
טיו
פיטור
המחברת
les
הגברה
מוגזם
##וארי
למילה
הצביע
המתקן
שליליים
לכיבוש
שנלק
מודעה
ומוג
החלי
בסכנת
ההתר
ולהתע
institute
לזרום
ועמו
מסתורי
ויוע
המתוכ
וזכ
ינסה
קינוח
הסדרי
למחיצות
והנס
הבינוי
טרומן
##לשלות
אגן
הפסולת
ther
התחייבויות
שעי
ארע
ומשחקים
נחלה
בתופעה
650
בפלי
##וברי
עמיחי
fi
hand
מסכן
תופסת
יוגורט
מסכה
תארים
חלשים
תופים
השנתיים
היורו
קוי
בגימ
חלופה
מעבודה
פיגועים
הסקי
שנודע
סבלה
כפיר
electron
שבצפון
##лы
מלגות
blue
הלוחם
##רחבת
תסכול
המרשים
##ופמן
תבחרו
נוטל
החנוכה
יצוא
אפים
##ושלים
שכטר
##טוריות
אגמון
רכישות
##סטוסטרון
ישבנו
המעורבות
הדוקטורט
לעצם
וארגון
שייר
שולטים
המאפיין
מתרחשים
שעועית
לדו
##פעולי
חסיני
המאפשרות
vip
השלג
ושירותי
נשמעים
מותם
יתבצע
השמיעה
blog
organ
נאוה
המטפלים
הלם
ויין
פחי
קסמים
האנטישמיות
מוזיקת
ויקח
##лия
ומקצועיות
שגורמים
##ורדי
רצוף
עגלות
טלה
##יונרים
העמיד
קידר
יסי
##רוזת
בבול
נצפה
במושבה
במרפאה
מרבי
המוסלמית
תרבותיים
גידולים
##רוצי
ריד
בפיקוח
לשי
פריסת
ילמד
והתש
ההתנחלויות
הוידאו
סלמון
מאומה
תעזור
משומ
מזכרת
המזגן
התמקדות
הפגנה
ברצונך
שלפחות
אתונה
לתוכו
בדרגה
המכונות
הוור
עכשווית
לאדמה
ההזמנות
מרפאות
ייה
כרכים
הארצות
התינוקות
שהחיים
בברצלונה
קלאסיים
נאותה
מימן
##ינינו
המספק
והטיפול
בקליפורניה
##gl
כספות
תרשיחא
למיני
לטענה
מתוכננת
רטובים
בערי
##gr
תרגם
המתקפה
בלוגים
אוהבי
down
תתי
להכח
נבעה
קופסאות
הרגשנו
ההשמדה
מיחזור
שגרתית
иг
לאיטום
מארח
יחימוביץ
##יבלי
המציא
המלאך
צנ
לעוף
נסעתי
ענתה
ליוו
##מוטטות
נותני
יוטיוב
##נוקת
הכניסו
טעון
אוכלת
להקליט
בחלון
עדינים
השפעתו
שברצ
בסוגיית
##יסד
נעבור
##מועצה
לחולי
שהתפרסם
list
בp
##וכת
וחשבון
##מלון
חגיגת
המערה
קנט
בעתירה
בתאילנד
צמודים
לאבא
לשונו
ביוטיוב
בתחרויות
בהחלטת
##בטים
שוברים
##זנט
והיכולת
וחלילה
קטין
##ירושו
המצוין
תמיסת
garden
הקיד
##ריקו
מקרן
קלילה
מאריחי
והגר
המתיישבים
ולעולם
kv
לקלי
סולר
technolog
כמאה
טרצו
מבקשי
מהילדים
מונים
שמחפשים
להתגייס
גרעינית
לצעוק
ממתקים
שהעלה
התפוצ
כנסיות
לסמ
נהרסו
הרגישה
פחותה
המרפאה
צומ
הגובה
בחופשה
##בתות
ומוכ
אקראי
ספציפיות
המרצים
שלוקח
ולהיפ
1923
גע
##מכרות
##תמש
ששום
חיית
וטה
##ди
להכשרת
##תחילה
##неи
מעברים
הפרופיל
טומאה
הציל
וסיוע
סטנד
קיבלתם
כוכבא
העידן
לבירור
ונותנים
קארד
הווירט
פונדק
##ואיציה
סביבות
ובניגוד
הצמד
תקשורתיים
סנטה
האוטובוסים
לשפוך
##arch
ירוקות
##עתיד
אביך
בגלות
סיפורם
בעיצומו
ההישגים
##ציפלי
המטיילים
לשמו
##rac
המתנות
העגל
##ונסאות
הנסיון
מתבטאת
פסים
אינדיק
חוסך
דמשק
##מידיו
שניאור
שנתק
הדוגמאות
услу
תתבצע
שביניהם
שהגעתי
הדקות
##ones
##פיעו
במגמה
זצוק
מתוכו
להתלונן
תגלו
מוהר
הפילה
ביולוגי
מיוח
בבחי
שהעניק
בשמש
הגולה
וכמות
u05d4
ממייסדי
צודקים
ולהציג
עגנון
##הוא
מרפאת
ובאותה
לנאות
מעשיים
pack
עינב
אותכם
יוצגו
להזין
##оо
מהאי
ברובה
ידעת
##קטיביות
רכז
מתארים
##por
במנועי
280
ומפגשים
נזכיר
##פשו
החוזר
ובינתיים
ועובדים
עקבי
ופתח
שחרית
שרכש
בחירתו
ומצוות
מאוכ
##אוור
בדיחות
open
חוטי
העוסקות
רחם
מותרת
והחלה
שמגיעה
במפרץ
##קוור
ענקי
הנבואה
ותהיה
מעברית
אירופאי
tax
החירום
ביור
הראי
השקל
עצבים
לגיטימית
מעריצים
סופרת
השגרירות
ננו
שכיח
בנווה
למסורת
ומאפשרים
ואקוסטי
בידה
##פשת
בהפקה
אקנה
ооо
דלקות
המשרת
בעוצ
היפר
אהבתו
268
הפלישה
והמוס
תקינים
כשכ
קונד
והפל
פרוסות
ערר
##ym
בתת
לכינוי
ובצורה
ומתחיל
קבוצתו
הגאווה
השטר
והוק
חשבוניות
1927
מובייל
##арон
##מוניות
מספרם
תחתונה
הוצאו
טפטים
לדבריהם
##ios
##סורי
הקדי
להתחייב
קדומות
ויעילה
may
מיילים
לארבע
לקוות
זנב
העונות
ובתים
הביולוגי
לבטוח
באימון
אותנטי
להמנע
שהייה
##אתרים
שהפעם
ותודה
מרשה
דנצ
##ילאטיס
רייס
להעדיף
בעיצומה
1926
##זרחי
ממוקדת
למדפסת
##ود
השהייה
המתקדמים
דפד
מומלצות
גח
באפגניסטן
##ושין
וקש
להתפרנס
מוצדקת
הנטען
##velop
במלאי
והוצאות
מועבר
החולצה
pay
פתחי
לרצון
דירקטוריון
והו
נוסחה
לקשור
וגיל
נפגעה
המיר
לעכשיו
עדת
##53
במורד
ונציה
fashion
war
תיב
וברגע
אמיץ
ברוסית
ובטוחה
וייצמן
עונג
ששיל
##abil
בהעברת
לכתיבה
סעודיה
בגזרת
##בדלים
אוחיון
##תינה
עלייתו
חומץ
יגור
התדר
נמדד
פיסת
נשאו
שוטפים
השיכון
תהייה
סלונים
האחדות
##ger
הקמה
##לבד
חזי
##יקם
באמצעותו
לסרטים
אקטיבי
וחיבור
היומיומית
שכיר
צימ
אלוהי
המתקדמת
לשרוף
ביסוד
אמסטרדם
המהל
הצומח
תובענה
ומשפחתו
התייעצות
שהספר
אלגנטי
##חתנו
לנבחרת
בונד
##son
לקצ
וישלח
לשוחות
שחוק
ויחידות
וטובה
שמורה
שההת
##аркет
סיטואציה
##kin
היקב
וזור
רסק
##ברכים
לעיתונות
הנטל
חמושים
##עלמות
##כולת
תדירות
ההפתעה
##ecd
##דתה
שמרבית
באבנים
בנוחות
מחומר
chr
תירוץ
שבכלל
הזע
תרמה
##דונו
השביתה
##ומלין
אשור
שהציג
לצרכיו
להזיק
ההגשה
build
##גוש
וגב
העצמות
count
עתידית
##тор
וריק
מזומן
יוונית
עצרת
ויצאו
במציאת
עוצרים
בדל
גליון
##וויטש
da
להפקיד
העדיף
##ינגים
בכותל
ואדיב
ניטור
בקוד
##ste
הבינלאומיים
ותב
que
בחב
וחלונות
##ida
ליועץ
הסיטואציה
הדה
בנז
הורמון
לספור
סגולות
personal
חדיש
##אדה
למרחק
שווקים
הגישור
##ונדר
##ונאית
דאין
##ביבת
שהדרך
יעלון
##uts
נמת
הרעים
רעידות
##נשמה
עבדת
הנצחה
##וסקר
מהראש
מתעוררת
השערות
להיחשב
צרכני
נסענו
בתקן
לשאוף
##ред
חיפושים
אלימלך
ביקורתית
למצבים
רבותינו
המנהיגות
לפש
חושך
מקסימים
תמידי
דנמרק
dc
לרנר
הסעודית
אסטרונו
בשרים
השמה
העושה
אווה
בחלום
נקראו
##סלמים
לשקם
card
##ינרת
מפורשות
##דיפים
המלאכים
חושים
##ווייץ
לתפקידו
דמה
לכב
לתחבורה
המדענים
סובב
##מתן
כנשיא
בירוש
##ממש
יועצי
שישנה
צדדית
##מקה
אזרחיה
מצביעה
לגזור
הלפרין
מאחל
ילידת
סימפטומים
חיר
מחוברת
המקלט
נופלת
our
אלוק
מורידים
וחשב
##סטאר
##יכתם
אנדרו
בקישור
##שכר
לנור
u05e9
דבי
המיס
בשליחות
ואותו
מעטות
דאעש
##ליפט
מפיקים
ותחושת
##מוקד
למחות
מכנסיים
הישנות
המלחין
##יוות
##תחו
המכסה
מתנהלת
סוקול
הפריט
הברזיל
בשישי
בנדל
ימני
шева
##שלמה
שובל
טרחה
משכך
מהאוכלוסייה
לקיש
רצונות
והחליט
חצור
שביקשו
משמשות
משוררים
מכיון
ויסודי
תפעל
לאוזן
שעמדה
נחשים
dj
ירש
מינון
נענע
ההגדרות
לוועדת
אהרוני
הצהוב
כולסטרול
טרנד
תואמים
תחב
מוסמכים
מרובע
יוט
יומא
##ble
לעברו
בלידה
ישלמו
הרדיק
##חזות
ופגיעה
משכר
מושבה
##порт
והתנהגות
הקתולית
##טיביות
##עשע
מסג
מגישה
##צהרות
בלגי
המעסיקים
ולהימ
micro
##лен
##פרסום
consulting
קפריסין
ופק
##ware
בכינוי
ליקוי
משברים
לרווחת
שעדיף
שימת
מעק
מרוסיה
##ולתם
מהתא
החשמלי
מבהיר
האולטימטיבי
השליט
לטלוויזיה
אספרסו
חיבה
האיל
אלד
מכרעת
ישתנה
מההתחלה
מפורטים
לשידור
לקחנו
ללדת
פצצה
house
vol
##פינו
אונק
אמסלם
ודור
עיתונאית
החיצוניים
דרבי
המוציא
המאוחר
שפורסמה
פיקניק
##מקות
מדגישה
השמנת
הצהרות
##истем
שבמהלך
טיילור
##эль
בבדיקות
חיצ
הזהיר
##וויטה
##עוררות
מבוקר
דעתכם
צפוף
עגל
##סמים
מתפקיד
לשורות
שהגוף
כימית
technologies
rom
ועבודות
בלבוש
מוכיחה
והרא
הגלים
חשין
הסובייטית
##נושות
##וקוז
תעמולה
עצרה
תשובת
аг
##ips
##ליזה
במדריך
163
הועלו
זנים
שילדים
систем
הום
אוספים
שעשועים
יפת
להתיישבות
פוליטיקאי
מתוס
gar
המניין
medic
עוי
##נלין
##скии
הבוחרים
חלקיקים
במדע
אייג
פוסקים
##פכת
נסה
קרבי
ושבע
הגטאות
ומגלה
הטורניר
לאבחון
רשב
מקלדת
השוטף
##שואים
##דיאו
##ать
לצעוד
הגרוע
פלסטית
הציורים
הארנונה
לקופת
שלטי
ולהרגיש
שהתקיימו
מוחל
מחוזות
מפקח
לזל
להרחבת
שיקגו
טיסת
##ук
קרוי
סירות
##ete
תורגם
full
להוצאות
הגפן
התקלה
##וארה
הגופנית
הדיגיטלית
ריט
והחי
נחלים
רוכבים
tam
הנמוכים
האפשרית
##רכם
הכאבים
מדפסת
צמרת
##מיהה
ביוט
והשב
והשאר
שילוח
משמורת
וישר
הבדואים
ייצג
סטיילינג
המרפסת
ופות
לנהיגה
הדירקטוריון
מעון
השדות
הווה
##ידרש
אלופת
וגז
משתף
ההתיישנות
החורבן
מתחייבת
ממשמר
nurs
הבילוי
שמקורם
לעו
אקונו
למוזיאון
##יאד
בכושר
בייעוץ
##בהים
מקבילה
משפחתיות
באחר
מתונה
##ארז
משבוע
נזכרת
die
##נאו
בעיקרון
##מוזיקה
איפשר
eb
ולחשוב
ובחר
##סטיבלים
במזל
##יקנים
##57
האורות
גולף
148
רשמו
לנסח
הותק
דיסקרטי
ההיל
החושך
##דיפה
##ראז
##משכים
החדשנות
המפתחות
פסנת
פירושה
היסטוריות
##חיזה
המחזיק
##סנה
##לטפורמות
נשלחה
##כתיות
התיבה
ירכ
וייצור
לשוני
ברמן
שעוסקים
end
הנוסחה
bre
הנכים
לגג
##erv
לדמוקרטיה
צהובה
המסורתיים
ההפרש
ששימשו
קברות
במרוץ
לגדר
לגרור
ביישובים
בלוטות
העתיקים
דיב
שוכחים
הקומה
שבדרום
הצימר
מגלם
שתג
מחשבת
חוגג
הדובר
בהנהגת
##נטינו
ההחזר
שאמורה
מדמי
כשנכ
פוליא
למשרהשלח
אמירות
בניח
בגודלו
tem
##עף
השבר
בסיור
שכיהן
דודה
בתצהיר
גדלתי
חותמת
אפיון
מונופול
בשרשרת
זינ
צחק
##וזית
הפמיני
התקרה
וסוג
רביב
מובטח
a6
lock
שילת
החרו
מסילות
הלחות
ומניעת
develop
סיפרתי
לסגת
נחשבות
הקמע
להצעת
זכותם
המותאמים
חולצת
התבקש
מהשטח
נלקחו
עונים
##еб
אדומות
חבירו
מיב
משיקה
פיננסית
ויתקין
פראג
sap
שעסקו
##ליקום
אסתטי
אינטנסיבית
##uz
##ולטאן
להתאמץ
התות
מערות
שבירת
plan
שהתקבלו
המעקב
ובראן
במינה
להנח
משאב
שחיו
ותיקה
##שראות
המתוכנן
##ental
לתשובה
מפותחת
תענית
מעודדים
##ויא
חרוב
ובמקצועיות
אילי
share
ולוודא
סאלי
פדג
בהצעת
##גבלה
וחיפ
ודא
168
פגעה
מתפשרת
yit
והמדינה
מתנת
##שראלים
תקני
מהסיבה
ושימו
מצינו
המפרט
הדול
שמתאימה
להוש
בתובע
מבשלים
ממחיר
האשכנזים
star
הוירט
מאורעות
ביולוגית
##יאוש
##יקליות
רצופות
רשומות
להפת
מצריכה
לצדו
בפרטי
שיתאים
##מבורג
ולשלוח
##יזבאללה
התכניות
שכמות
בניסוי
שסתום
ושמה
המזכיר
השרה
ללמידה
במגזין
ובאותו
יהווה
הנפשית
ולכך
האמריקנים
tags
האדון
מסרט
##ריהן
הפעלות
שהתקבל
המעצבים
למוצרי
במרפסת
האיג
שברי
##ורסות
shm
קהילתית
לנהג
והניסיון
הדגמה
הבינוני
התנגדו
מתוחכם
oecd
ישאר
מרוויח
גרועים
שמעתם
מטאל
הקצרה
##תרים
לגלגל
שופרסל
##קציות
##נקין
מרשימת
פורמלי
והתחלתי
156
קטינים
בקרק
##סטרי
שבויים
תחילתו
נהרות
usd
##אול
לתרגל
לראיון
פיהם
ביידיש
השבועי
הפריצה
דרושה
הביצה
##עדפות
לתחנה
תיתן
הנרות
ותאמר
וקבוצות
הצרות
ולבחון
גירסה
ביבשת
גלגול
דחו
והתייש
##rag
##רמנים
גמלא
אשק
ומשל
לפיהם
פסיקת
השלימה
שברגע
כלשהן
הפדרלי
books
החקלאית
מצחיקים
שיסי
שהתרחשו
דבריהם
חבלים
טיפוסי
לרצוח
המוקדמים
שהולכים
התקנון
האפשריות
טקט
טבלה
שחלפו
שבזמן
##בנן
הסינ
ססג
מקצת
במרכזי
раз
שוקל
גילת
הגדילה
חרט
רנו
האינפלציה
##ולציות
ניילון
מנצחת
חידות
וממנה
מעיל
לשנתיים
##דותי
kar
ליעקב
להבטחת
פוליסת
הספיקו
אחינו
מאני
##ision
ישראלה
ומיוחדת
בהתע
fre
##זנה
ובמקומות
במפתיע
באפליקציה
וריבית
הפתוחים
##ימיקלים
תואמת
וייחודי
כריז
לאווירה
157
משלוחי
התארגנות
##דיי
למבקרים
המוסרי
לריק
הסולם
פריים
clean
חופשות
מסורות
קצבת
עולמם
פציעות
מפורסמת
התלבט
בארצנו
מינוס
##ua
שבעלי
בשבילנו
אלבומו
##ולדים
הבג
##נבלום
קליטת
בחולים
technology
##פורת
שביום
פרסומי
##אוריה
התגי
שנדמה
לפייסבוק
תעל
##ילדל
מתעניינים
סלים
ob
##נבורג
פרלמנט
טרקטורים
שנאת
ליכוד
##יטון
##ארך
##59
пар
דקלים
לעומתו
רפורמה
עליונות
שהופיע
sd
האבל
השוער
וביחד
חשבונית
המפואר
הגבינה
os
ואינן
לבישול
אפוק
האזנה
שפתח
ומאוב
אינדיביד
اس
לחמם
ולבני
מגרשים
apple
הוסכם
מהצדדים
הסוכות
הדרכות
השומרים
מרשימות
זני
לאיזון
מגעים
להתנהלות
услуги
תנסה
הכעס
מצבות
ישלח
התאומים
מריו
##בטחות
המאוחרות
פינקל
והארץ
ושמח
##omen
להגדרה
обра
הבינ
רעלים
יונס
הצייר
##נום
##ורכת
##שרונות
מתחומי
law
לייק
החיוך
המזמין
##זנים
כבשים
##54
רוזנטל
שהזמן
שועל
##יוטי
##וגני
##גתית
ניסוח
סיירת
##ci
סברה
עיד
והבי
הפנו
לגנות
ברוס
במחזה
המשתנים
ממניות
סטא
והערכה
ואומרת
לשעת
ביציאה
לגורם
רגועים
נגנים
ai
הפן
בבטחה
ומהירה
האפרי
הגלגלים
קזינו
ריקים
הגאה
לשונית
תאמינו
סטנדרטים
שרובם
בגאווה
הגדלים
דיירי
התחתנו
3d
דיקט
סודיות
בדמי
מהמד
posted
חה
כמרכז
וזכתה
המותאם
קרת
בחוויה
שומה
הגוש
##קטורה
חלופית
מהספר
המוזיקלית
גרידא
ta
המפעיל
העזר
שחברת
syn
##וספו
החרם
אזעקה
##רעיון
פיזיותר
לסע
תתן
וחנויות
מיליארדי
השבים
וביר
המחלות
was
בעיבוד
ומאות
spec
האידיאלי
לחידוש
אינטימית
sun
במצבו
וידבר
ושיטות
##ומג
פיקד
##кая
התלהבות
לביתה
ירושלם
בעשר
##נציקלופדיה
ליטא
plus
התקשור
לענף
רגולציה
שזכ
היצור
##מקדות
pn
מחירו
יצחקי
דיאט
עיוור
##ruct
תפאורה
בכבישים
הרדמה
יבצע
בירך
gov
ולשת
בבגד
העשירי
בהליכה
לשרות
פרזול
זיהה
стро
מאלי
בתחושה
וסיים
rav
##ops
##וצקי
לכיסוי
ולקח
##כלוך
הפאר
השתלות
##ומוז
מאבדים
אלייך
ובהחלט
שמתרחש
שנפגעו
דחתה
##ומנית
הנאמנים
מורד
שנאס
פיגום
פרסמו
שביתת
##ינויו
ערבוב
מלקוחות
שחסר
מכולות
הניסיונות
ספסלים
יומם
ניא
מודפס
מסקר
חודשית
יוגב
ביניש
ובעת
שמיד
ושלח
tagged
בשבע
הפונקציה
הרומי
בחטיבת
gps
דאר
164
שתז
שעשויים
הזכאות
פרידריך
החלמה
מנויים
הסתוב
מריחואנה
המפרסם
##ומטים
לחן
בנאום
התחזית
צוחק
##כחים
המלווים
glass
הנל
ריבוע
##מיניסטר
מתחייבים
דנים
היגי
##alth
לנתב
שמצב
##נהגו
שכללו
##מטת
אובייקטיבי
חודר
באלו
הבאתי
המרגש
לשווא
לסבית
האגדי
הכביסה
שיהא
בקיסריה
ניסינו
שהחוק
герц
מאתגרת
הוחלף
מרענן
##פעים
##ley
הנפלאה
וכעבור
הרגשת
הרגשית
##גשמה
הלהט
פלוגות
הוכחת
שימושיים
כאתר
השומה
הפיך
פתחתי
לריפוי
ההיצע
מרווחים
טבלת
במדר
למעצר
שייצ
תיקו
260
מתערב
בקבוקים
המתחרה
בולטות
הסלולרי
הגט
##מנא
שהתר
אסא
בעליו
פירסם
ולקדם
שכינה
החיידקים
##יסקה
ליישב
בחלוף
השידורים
הוריד
מתקת
שישב
סירה
##уч
מורגש
למנוחה
ברפ
##דיניות
נסבל
אסיסטים
שהגישו
מועדים
נוגדי
מנדלב
שטיין
וערך
חכמות
##ושרים
סטאר
שהרו
הקנס
המחמד
משלושת
ערוגות
דניס
העג
והגנים
##מירים
הסבירו
וספורט
להוראה
יאן
שכחתי
התקליטים
הוויכוח
מתנהג
במכירת
התיע
שפכים
בלעדיו
הקולוני
גירון
ועובד
המוצג
תקציבי
העגלה
ומנסים
שחיקה
הקליפ
xl
טוויטר
למודיעין
הכלכל
יתושים
טהרת
инженер
שפס
##יאנים
הכלכליות
בכותרת
##לותה
##כנתי
למבקש
היוגה
כילד
החבל
##זהרות
המציעה
שמשה
מקוד
יגה
ועיר
אמורות
גמזו
רודף
aspx
שהובאו
לקיומו
##che
קולג
שהני
בשיעורי
מחזקת
jo
מטריד
למסיבה
הצלחתו
ובמד
159
פרפר
לישראלים
##ורונטו
להיפתח
שפותח
colle
כשחקן
הרגישות
ישבה
העיריה
מונחת
שהפג
ההתנדבות
ct
היכנסו
##וציו
אלישיב
בשבתות
האיכותיים
קורים
##נכם
##ior
החידוש
##גרלה
נאט
בדידות
כשלעצמו
בנייני
מזוז
כשהש
ביהוד
גופם
מחשבון
ייראה
צולם
מדוק
חדל
ולחץ
מתעק
בתימן
במדרש
לתלמי
##אולוגי
בחלקם
כעל
לתחומי
החלבון
הרכבה
הגלריה
##כטה
בארמון
שטע
ונתנו
##ונייט
העיבוד
##וויטות
תבינו
מאיזה
נמנעים
לעיון
לעריכת
וגגות
בצמרת
גלובלי
##גורמים
חוזק
פצע
הנשיאות
לחקלאות
ודרכי
לפינה
וחמישה
המכבי
נטור
##חנים
הסורים
לשירים
מזד
השבחה
פפריקה
מושלמים
##ествен
מקול
ברעם
לנסיבות
העושר
לנפגעי
ילדותו
ליסינג
נזכרתי
שפועל
שהוצג
מיסטיקה
##צתו
קמפיינים
הושע
550
המתה
ציפורי
האיכותי
הסוכן
צמיגים
להנהיג
עצירות
להספיק
ההחלמה
וחט
##ושהי
##וקציה
בהכר
למושב
ארא
##גדה
השוני
141
מצחיקה
כיוונים
##gy
מחברה
החיובי
שלפניכם
ברבות
למשרדי
מארס
המציעים
hab
##יבידנד
##ling
ראיתם
ינון
לשוויון
##צהירו
רובו
שניהל
ליעדך
עתיר
השגחה
##וממים
שלאח
שיפורים
הדוא
תפיס
לין
המיסוי
מציל
מציב
##קדק
ורשתות
just
##שפו
לחב
מניפול
##יפיק
בשיפור
##ימם
גודלו
יווני
מולה
שלמדו
במקומם
##ani
ניידת
##יטריסט
יתי
##מצעים
לפענח
נוגה
##ster
הסתיו
press
סביון
##ונתה
ביתיים
172
בנקאי
כיח
לביתם
שיכון
קלף
ואצ
בוטלה
בפיקוד
בריה
יתרו
סובלנות
רגישה
והקשר
לקונס
ממשחק
טעה
לאנרגיה
כשס
הנוק
ולקבוע
סבי
אחה
מאכ
##וטין
שחוש
שירותיו
קולוני
עמיתים
לשמוח
אנליט
ממיטב
סודה
לשיקול
##פעלי
שבעזרת
לכות
שעיר
הטלפונים
##ומנטרי
##פונה
שבתק
בגידה
העליונות
דחופה
לקריאת
וניסה
##חט
מאב
##חוזה
בכדורסל
סמלים
הנפגעים
שריפת
המוניטין
מגשימים
שהאתר
1912
נקלע
ומספק
##hal
התלונה
שברור
סירקין
long
ios
לרת
לפקודה
מהנשים
151
בתנו
לחצן
כוחותיו
rest
הומו
##מיית
תאכל
profess
נחוש
שנכנסו
התקרב
ומועד
אילוף
שאצל
הכינוס
נקמה
תמכו
שייתכן
והעברת
נפגשנו
saba
חיפש
שהכול
שזוהי
עוצמתי
##יפיה
נשען
שנהרג
blu
החסר
באוקראינה
יתירה
ייהנו
ישפיע
יהושפט
להפק
וממנו
##те
גרף
תפארת
##יאתית
מוקדמות
במפה
וכוחות
##ican
מסוגלות
המזכירות
##פסדים
התאריכים
הפסוקים
אגרה
סדקים
##rf
חתיכות
אוורור
בבכי
העכשווית
לאיים
כמחצית
הפרוב
ברעיון
##01
שנהג
בתפקידי
רובע
שיקים
##yt
הצנרת
כמז
שיוצאים
חזור
והמלצות
וסבל
ашд
##ופנו
lot
##גלתה
ואבא
הצינור
##וניסיה
קצף
ייעודית
ולחפש
שבחרו
ההרחבה
תמיכת
והאיכות
השליחות
קליניים
חריפים
במקצועיות
##וקקת
##ראלי
הכחיש
למורה
מוצדק
ינ
האונייה
הזמני
##מען
מטענים
לזכותו
עצירה
בהתרגשות
ומיומן
המונדיאל
od
מאמנים
הוליווד
מנצלים
sil
##בז
פרשיות
fuck
##ולטים
בייס
סוטה
ולשלם
פיזיים
טעימים
9b
החליפה
התחושות
המוצלח
סאונה
ממומן
הבקבוק
משתפים
שמערכת
יוזמת
השגריר
אלימים
למסיבת
ולהתאים
חשמליות
בהבנה
שאחת
לנכס
המשכתי
וסרט
לאפס
##פיג
320
דכל
ומייצ
ונקי
הפיננסית
##ידולים
המגילה
קרוז
יצירותיו
האינתיפאדה
סקסי
הערכ
חורין
בדירת
התרחשו
הנותרים
אנטוניו
הכרחית
לדג
קאופמן
תתע
מעצמה
לחייך
ולדבר
הסכמתו
נזקק
וניתוח
153
קיימו
תכני
המודרניים
בתרג
בלוז
##תיעוד
p1000
##וגנת
שמחזיק
רעהו
##ישוק
##נאת
שלילת
צעצוע
צמחוני
161
הרצף
עייף
כפייה
מורחב
ושש
שמעל
וירד
הפופולרית
mill
תדר
שמעת
המשולש
מזרע
בסתיו
אזכור
##פונות
קוסט
שולם
הפרשות
שאלון
והתקשורת
##שנית
ותואר
למתחילים
המירוץ
אברי
בדיונים
zo
האקט
במניעת
בתמיכה
פינוקים
герцлия
חלים
לגוון
##לחן
בזכ
אפשרה
המתגוררים
מוצגות
u05d0
אינסופי
##כיהם
המטבעות
לכדורגל
##fm
לאחים
אירעה
באילו
עודפים
כחולה
פאב
##ki
שביעית
ושלל
נייט
המזוהה
ברגר
ליבם
מעזה
##קלור
הנעורים
דסק
צירים
רקמת
ממשלתיות
כיורי
בלוב
צפר
חחח
פריצות
מבשרת
וכיוון
המקבל
בגוונים
וגאס
פרוז
נרקיס
יוצרי
הטייסים
##חריים
##יסכון
לעזה
כשבר
רוחניים
appl
שאכל
##רפיה
לרוסיה
סנקציות
צאו
לערכים
שמטרתם
לטירת
הדרכת
##נדסים
ההישג
ליידי
בווא
הסטטוס
mel
אטרקציה
אתגרי
דיבורים
מביע
158
יספק
נחשבה
שולטת
מתון
פגעו
הזן
רבדים
העדיפו
##ביים
עיירה
לבטיחות
שותים
האיומים
מסתיימת
נוד
מועדונים
חורג
פלמ
רשעים
וטור
מפנים
היוצאים
##גשג
ובישראל
באסיה
לפולין
מכבד
##בחירה
אוריינט
бнеи
והגיעו
##יטא
מדברות
מדידות
שידעו
cas
לקונ
מפרו
פצוע
קוצר
חלוקי
בפרלמנט
##קוט
girl
להתגרש
קביעות
מתמקדים
בשות
חיטים
הפחתה
המקרר
עניתי
פיגועי
פרנ
גילינו
ואמו
גויים
מתפקד
##ונט
המולדת
לחלוקת
##פתונים
איורים
##צהיימר
יעבץ
המכונים
ותיקון
בחוברת
שילר
האנימציה
בכנות
יהל
ent
##מריק
##ניטין
studio
הגי
ארצו
השותף
חפש
פקידי
לפוליטיקה
ספרית
בשלמות
הילוכים
בהפועל
כורסאות
למדעים
הכספית
שעליכם
הבנוי
לכתחילה
good
##יהנום
строитель
הייש
תאגידים
אופטימי
למותג
шарон
בשפלה
##ילבניה
mid
בתם
ולפיה
וכרטיס
##ימוני
##ידרה
פרנץ
הזקנה
התוצר
##דורף
ומכירה
עממי
מאיימת
הושלמה
למקרים
התנגשות
שמבקש
כאח
שערכו
והצע
אלקים
wifi
השגה
שתיית
מחרס
מערכה
בהודעת
ושנה
חופשיות
הריקודים
ארכה
הסימן
הגרא
צומח
לבריכה
יחליט
התייחסה
##פשטה
מתקשרים
לתקופות
לפא
теле
mobile
##лов
בטטה
להעשיר
הורית
הטבה
אביבה
משקפים
התיקונים
האלופה
אינטראקציה
##ריזה
פורצת
##מנואל
וקה
נעת
מתגוררת
פיצול
עצמאיות
יוא
ולנהל
ולהגיד
האמנותית
ашдод
من
הקישורים
בתיבת
מכוני
לחרדים
הנמצאות
רגלים
לרשותו
חוכ
##פצו
שהבא
לנשק
המושבות
צמנט
בטמפרטורה
גזל
וצה
בבשר
ננע
האומר
בעימות
הנדסאי
זרמים
הבעה
##מלוגים
כלפיה
##בעי
מכול
קרבנות
משתתפי
הסטארט
המאוחרת
בטכנולוגיית
האגו
בפסיקה
##ילנדי
וגא
החרמון
##יסק
שבגלל
ההסברה
ke
yose
התשיעי
##ובאוויטש
המנורה
ההפגנה
המקסים
שרתי
גורמה
כופר
העומר
הטנק
sams
תצפיות
במונח
לקיומה
המעיין
לתחז
הופמן
תמימות
סהר
##נווה
מריר
מאוחדת
החות
מדליית
מנוהל
התשנ
לעומתם
הסדרת
הצידה
המשכנו
האיראנית
לחמש
##נדריה
בנפשו
הרפור
אפגני
ארדואן
רווה
##ישם
והחס
הותר
בשומרון
לתצהיר
רויאל
##יתמר
סיפקה
270
ושמן
למשחקים
אשכנזים
שהמק
בשיחת
שעתיד
have
ונקייה
הספיקה
המיניות
ולטפל
מעיני
##руз
ניהלה
והתחיל
שבבית
נוקשה
ולמק
רבבות
פותחה
החקלאים
דרגה
הגוים
הפריחה
רויטל
חינוכיים
מתחדש
קרוא
אשמים
cat
למור
הרוטב
רינה
הקבלנים
##סינה
##רוקן
לשיח
ולטע
мед
##pro
המצליחה
##ode
אינטליג
התייצב
הסכין
מעשור
חופה
שוע
תכלול
שמיעת
קיבוצי
שמוס
מוזרים
תקשורתי
באופי
ושית
171
bbc
ומעניק
##ства
מהרב
ובעונה
anal
גבעתי
ליתרון
תמימה
מושכת
הבוררות
בסיכום
שתיה
הבריחה
ונאמר
##дов
ברוחב
ולכאורה
המבוקשים
הצב
המשוררת
הגון
תרגומים
אדלשטיין
מגביר
סטרואידים
נעזר
לעדכון
סטטיסטיקה
חולות
סוציאלי
חולמים
החליפו
##בודד
המודעה
העידו
הסנג
סאלח
לגישה
למעגל
דאי
אלנבי
ההגבלים
קבור
אכזרי
לחייהם
לסופר
אופנתי
והמשפחה
ששיחק
ומניחים
##ניזם
הכרוך
ושליטה
החילונית
לשיחות
מרופ
בבימויו
האבא
הדחה
אולטרה
שמציעה
שמצאתי
##דקה
מאליה
נגזרת
אפיל
נערכת
ומציעה
גוברין
לזולת
מכרזים
u05d1
ever
סים
וכאלה
ממרח
ובשנים
ההיסטוריים
ומספקת
טורניר
ופתרונות
вол
מיתה
להנדסה
מסל
צעק
לארוחה
פטל
אישרו
##נגב
למועצת
המיט
##קטו
ומבנים
המצבים
לחדשות
##ישרדות
פנור
משימת
לשגרה
הזיו
האורז
9f
פתק
לקומ
שיטתי
##иб
למזל
הטמ
שטען
##ינברג
שולחת
אדריכלי
מתפלל
##צינת
פופולרית
pop
זונה
ערכות
##צתה
כשהע
מוותרים
ככול
##ושוויץ
לשפות
##יכוחים
הפסנתר
ולידה
##echan
rev
##ск
graph
גלאי
היובל
התקפי
העדפה
טועים
מרינה
לאוז
העריך
שיחקו
נטפים
הדרג
המסקנות
במחשבים
משווקת
כמקובל
במבנים
shop
מהגוף
אינסולין
כחי
אוירה
##יכונים
אפשרו
iso
להצלת
ופה
הבצל
##טהייד
משקיעה
הכרעת
הנזיקין
גלובוס
ועבוד
##רוקת
##ינדב
מביתו
האלק
פסי
שנהגו
וסימון
מתעד
ולחי
ולאחרונה
צעירי
חתנו
פומבית
excel
בטבלת
למאור
המורכבים
סבבה
נגיעות
##hen
הכיסא
לאונרדו
לכאב
und
dir
##רישת
לקשיים
שצור
##ads
וריפודים
ערכית
##brew
נטי
והראש
הבוגרת
רפאלי
המלכותית
לפוצץ
##נגשות
והשקעות
זירת
משווה
הבאר
אויבים
בריכוז
כועס
כואבת
פאה
תיל
להנחיות
בשירים
##וווו
רגשיים
##ody
נידון
מדדים
פנסיוני
dev
הציפורניים
הפלטפורמה
להתרח
בענייננו
שפט
##ots
קריות
גרופ
המדידה
מנמל
המבוצ
ומוסיף
חלם
הנובעות
המדדים
דימויים
מפתיעים
פרימיום
##מרין
הצבאיים
נציגת
הכנע
ועדי
שיושב
הקטעים
שבטוח
בוסטון
##ql
הפרדת
מקסימלי
רוגע
יושר
למיקום
##ינוקים
ועשרים
נעוצה
פיסול
הזירה
לבונה
קרלי
סורוקה
ness
##та
##ירופה
שנכון
וזול
##סני
ההבטחה
ומדינות
בקעת
השתלט
השארת
נסיך
הצהרים
4000
בפיו
פלטפורמת
##פוסים
##וטם
הזמנתי
בנקאית
עוטף
קימ
##ופשות
הברון
צורכים
אנרגטית
ריגול
הכדורים
היהלומים
הזבל
לתקציב
במילואים
инженеры
כנא
##מטיות
אווירת
והצליח
cast
המראות
וציין
מחדר
בשיעורים
אמנה
מחולה
למחשבים
שקשורים
השלמות
פיסט
הדתיות
יפנה
בהתנגדות
אוריאל
מעשיהם
הסבה
173
שגורמת
מהתי
מגוחך
התלת
באחוז
האדריכלות
make
בגיוס
נתע
היצירתיות
האסיפה
בניר
##יליפינים
ידידותית
שלעתים
ראות
וצרפת
כתוספת
מתקשרת
ושלווה
במלי
הרמוניה
התקציבים
בריאן
וותק
##פוחית
שעברתי
מופשט
##ופולין
הביקורות
הבונים
משקי
משמח
מעמידה
בתאונות
интер
מרפאה
##ילנה
שהינה
##נטוס
תזכה
##שירים
אלך
##לחל
שנתפס
רביד
בכוכב
בריח
אשליה
ברים
בחמישה
הבראה
סובר
##לימו
נחלקו
פינק
ומשפחה
שאמורים
##רוצ
כתנאי
לאנט
במאמרו
##וור
##רמרקט
היפנים
samsung
##צימלי
כלם
נסיגה
חברתנו
כנק
הקאמרי
שרוול
שמשתמשים
פוני
מיין
##וציות
מלחין
##gi
##פירת
למקורות
מודא
כפרית
carm
וכיון
נוסיף
לסטטיסטיקה
שניצל
ביין
התקינה
##קמת
קמפינג
טעינה
הצמ
שנוגע
נתקלת
ליחידות
gurion
עלמה
שהגענו
ולחיות
##ks
##ובילות
הציפורים
שיגרום
ולכתוב
רבנן
כחל
ליזום
טוהר
##ביעים
tz
להוז
בעדות
##אלתי
מעולות
בפורטל
הודי
הקסד
משתדל
סייד
##וכני
מבחינתם
זח
לבלוג
סנדר
##פליה
טייסת
מבוססי
הרפואיות
לפרטי
אריאלי
מנהרות
ומכש
הרוע
צילם
##ורבן
ומאו
חרדיות
электр
קומת
##מלו
בתודעה
מתעניין
סוכם
מולקולות
הקוגניט
פוגשת
##ана
##יזמים
ומסחר
##תיח
התאפשר
כושל
הכבלים
בדימונה
למגרש
לתוספת
שון
לכבות
קריס
169
ארם
המוחלטת
נוטריון
יותם
התובעות
הרוד
כספו
קיסרי
בקריאת
מעביד
קומי
להודעה
למקד
בדא
מכספי
פאנל
edu
החמצן
בעשייה
היוותה
מלכא
הורמונים
key
##כלס
בהמון
אביגיל
למדד
כגורם
מצגות
בכפרים
כחולים
ומסביר
ובעלה
יסמין
חבריהם
מיתוס
פשעי
אחורית
חוקה
joh
מדידת
דבריה
לבעלה
קפא
לשירה
מפתה
סעודה
במינון
ועשית
התעודה
תרתי
וטעם
הריקוד
לקויה
בבירה
##סטודנטים
חיישן
##נדלר
למופע
הסימפטומים
בדיר
בניסן
זקני
שורשי
השחייה
ליכט
##מקי
שטיפה
תחזוקת
bor
##rat
אתיקה
בהיבטים
הזור
##ולע
הקסום
תחתיות
שימושית
הדרושה
type
סידר
שעלינו
##roid
בצעדים
יומו
##פיש
התשל
דאורייתא
בשערי
##שותו
שמתרח
##יקרי
בשנייה
##יסון
ארנ
##ики
והמוד
בפח
מפותח
המחסור
##فا
המאופי
ספינה
הבז
פסטור
התחקיר
מלגזות
התנהגויות
הסיט
hu
ריבונות
קופסת
דימום
ינסו
##52
הנתיב
שפרי
אמריקן
הוזמנו
hsl
land
test
מבצר
##שיתוף
המטרי
צורכי
סיסט
לתיירים
והמים
לעיבוד
הקסדצימלי
לעדות
שהתקבלה
##יותה
באום
הדאגה
ייעודיים
למנהלים
fda
מרקט
ואישה
פיקסל
להיפגע
התסמינים
האולימפיים
הארבעים
לבלום
company
הרות
הוגו
פתיחות
##ple
בלאק
הפנה
חיז
##anim
הטרנס
תופת
ואיננו
stat
מעצבן
ואגב
ומרע
הפעילה
##нии
קבלות
המתמטיקה
השתלטות
ממתין
החיצ
לעיכוב
התעשיית
והופכים
אתיו
בחומרה
לרדוף
קשוב
##ira
רונאל
מצבר
ביהודים
אוניברסיטאות
זעירים
אישיותו
שבמע
שנוי
אסתטית
המכתבים
##פנית
סצנות
שצריכה
הניתנת
##ield
הגיטרה
לתפקוד
נוסעת
הלוחות
בתערוכת
##עקו
לנהר
לחלות
לנקום
בבחירה
##ומטריה
השמועות
הקרמ
מאייר
האשמות
לאכוף
אובייקטים
חרטה
##fc
בושם
למפ
מקיפים
1900
לסניף
ארצנו
השייכים
למין
להתה
פוליגרף
##רפתקה
university
162
הצביעה
##פקידים
המהגרים
והביטחון
ההשע
הגאונים
למרחקים
בובה
והספורט
קפץ
##יסל
בגנים
בגילוי
המיועדות
לצמח
##ימוי
רעבים
הביתית
יגלה
תגיעו
##ыш
מיפוי
הארה
במשל
ישמור
ומהר
כעיר
פחת
להנג
מסנן
##זרקה
מתישהו
##ולטות
בביטוי
מולם
##דורי
מתמודדת
שבלי
שנחת
שמנהל
ספרותי
הרגישו
פעולתו
שיקבל
וביקשו
וטרינר
##כננים
##גייסים
דגנים
##gn
ומדינה
הקידום
שירצה
##רטל
סופיה
##וכבת
ועמידה
מכמות
האדומה
ריאליטי
##וסו
הציווי
ווק
יפג
קאי
שבילי
רציפה
הארוע
במעי
##луб
הקשב
לעיירה
לבדיקות
קריוקי
להצעה
בתקופתו
אופטימיות
אורגניים
מום
דרבנן
לוועד
ברגמן
המפעלים
מצליחות
ימנע
##נפלינג
בינהם
לבילוי
אמנת
התאוריה
גנרטור
הרגילות
קאנטרי
נולדתי
דיברה
בעמידה
פערי
add
גניבת
דנציגר
וביע
מפעילי
שכשה
נאוי
##פלא
##וטא
נמכרים
##נליזה
##לטר
##וגלת
המצוקה
מוטיב
המבחנים
ההיע
gb
צבעו
גלילה
ממחלות
##ou
חלות
הנוספת
##גוג
הגנוז
##יצרי
מרגשים
פסולה
att
הכפתור
הדפדפן
הצהובים
שבדק
תמוה
##פועל
##נסויות
בודדת
בשבועיים
שתקבלו
##елир
הטכניקה
זמרה
בחושך
dance
טקסי
##ream
קרקעית
כתם
mit
מסכום
לפריז
המקראי
##דונית
קישוט
בחזקת
מוגשת
מוקצף
##רפתקאות
ובדיוק
טיע
נסעה
וחיזוק
מצדיק
בקתות
הגלובלית
השוכנת
בנב
הנגדית
##ילדלפיה
בנר
והציבור
iv
loc
mc
בקשו
חולף
הביזנטית
מהדי
בשמונה
חייכם
סמוכים
##וערות
לבור
תקרת
מיוז
כוב
ללקוחותינו
ופית
הישירה
הסעודה
##ид
ומדרי
ממכ
info
לנית
השורשים
166
באינסטגרם
ובנה
##חתית
היריב
וירושלים
##וקז
בהישג
בוץ
##דיחות
##נטום
שקובע
נרכש
##ция
מכללות
בחובו
מגבלה
שותפו
האפייה
